<unk>	0
<s>	0
</s>	0
.	-2.18196
▁	-4.04742
요	-4.13498
을	-4.29726
가	-4.57633
도	-4.58962
▁거예요	-4.68743
?	-4.77835
는	-4.79972
게	-4.86283
이	-4.87925
은	-4.89268
를	-5.02385
세요	-5.04657
네요	-5.12222
보세요	-5.12995
고	-5.13873
지	-5.19242
▁수	-5.20035
의	-5.3053
▁더	-5.38871
▁잘	-5.53785
▁것	-5.62966
▁사람	-5.64581
죠	-5.66105
▁거	-5.69395
서	-5.7022
▁너무	-5.70338
▁좋은	-5.72718
한	-5.74315
봐요	-5.75204
면	-5.79241
▁많이	-5.79515
▁같아요	-5.81007
해보세요	-5.82183
에	-5.82467
▁안	-5.84167
▁있어요	-5.85949
▁좋아하는	-5.86387
▁사랑	-5.86412
▁있을	-5.8687
히	-5.87488
▁그	-5.92591
▁나	-6.01622
▁게	-6.02779
▁생각	-6.04226
으로	-6.06514
▁때	-6.07669
▁마음	-6.09129
만	-6.09313
!	-6.12077
▁마세요	-6.12432
▁좀	-6.17473
길	-6.18081
▁사람이	-6.1944
▁건	-6.21576
로	-6.23148
나	-6.24289
▁없어	-6.2661
랑	-6.29335
▁해보세요	-6.30545
할	-6.3476
▁마음이	-6.36697
▁이별	-6.37323
이에요	-6.38635
▁있	-6.41272
▁다	-6.44099
▁말	-6.44708
하고	-6.45095
▁내	-6.47885
▁있는	-6.47912
▁썸	-6.51737
▁좋을	-6.52836
▁다른	-6.52861
▁시간이	-6.52865
▁싶어	-6.5389
▁이제	-6.54435
▁수도	-6.55047
겠어요	-6.56555
▁저	-6.59517
니다	-6.601
▁않아	-6.61734
에요	-6.61864
▁자신	-6.63079
어요	-6.64109
▁걸	-6.66737
▁같아	-6.66956
▁가	-6.671
▁될	-6.68163
▁조금	-6.68592
▁오늘	-6.69357
에서	-6.6968
일	-6.69879
▁바	-6.69931
▁당신	-6.70112
▁일	-6.70316
▁그런	-6.72601
가봐요	-6.72925
▁것도	-6.73433
▁힘들	-6.75854
▁한	-6.76608
▁지금	-6.77618
▁연락	-6.77626
▁바랄게요	-6.77769
하세요	-6.79481
다	-6.81493
▁같이	-6.81671
▁다시	-6.81733
하는	-6.81838
▁돼요	-6.82175
▁하는	-6.82671
▁할	-6.8365
▁정말	-6.83703
▁아니	-6.83729
든	-6.84083
▁저도	-6.84616
▁일이	-6.84783
▁내가	-6.85348
▁시간	-6.85735
거예요	-6.8901
으면	-6.89383
▁왜	-6.89938
▁하고	-6.91166
▁그럴	-6.91555
▁제가	-6.91661
▁좋아요	-6.92066
하지	-6.92683
▁혼자	-6.9373
▁친구	-6.94014
랍	-6.95682
▁어떻게	-6.9672
▁또	-6.96937
▁먼저	-6.97089
▁못	-6.97515
▁없	-6.97768
▁있어	-6.98478
▁드세요	-6.98741
▁연애	-6.98856
네	-7.00302
▁좋죠	-7.00758
과	-7.00776
▁뭐	-7.0201
▁남자친구	-7.02934
▁하세요	-7.04306
▁좋아	-7.05675
하게	-7.06759
▁살	-7.06941
기	-7.07099
▁서로	-7.07116
▁싶다	-7.07166
▁만나	-7.0786
주세요	-7.08005
▁하나	-7.08637
▁여자친구	-7.11002
▁해	-7.11531
▁힘든	-7.11659
▁아무	-7.1203
보다	-7.1362
운	-7.14275
▁말해보세요	-7.14299
야	-7.14374
▁몰라	-7.15174
▁생각해요	-7.15496
씩	-7.16677
▁충분	-7.17413
▁좋겠어요	-7.17613
나봐	-7.1833
인	-7.18816
니까	-7.19426
▁해요	-7.19436
다고	-7.20307
지도	-7.20369
▁없는	-7.20683
▁이	-7.21977
▁아직	-7.22416
는게	-7.24057
라	-7.24186
상	-7.24298
▁이야기	-7.24307
▁여자	-7.24558
어	-7.25187
▁사랑이	-7.25322
봅니다	-7.25924
▁보세요	-7.27206
▁그렇	-7.27489
라고	-7.27883
▁많은	-7.27974
▁사	-7.28562
▁눈	-7.28859
▁진짜	-7.28997
▁좋겠	-7.31054
▁자꾸	-7.31549
는데	-7.31628
▁전	-7.3224
▁대화	-7.325
▁계속	-7.32874
▁어떨까요	-7.33012
▁하지	-7.33836
▁준비	-7.35057
예요	-7.35075
▁먹고	-7.35567
해요	-7.37025
거	-7.37514
▁함께	-7.37901
하면	-7.38841
▁있나	-7.39145
지만	-7.39932
대로	-7.40341
인데	-7.40491
▁참	-7.40918
해	-7.41424
▁생각해	-7.41587
,	-7.41809
▁선물	-7.41908
년	-7.44159
입니다	-7.45614
▁알	-7.46132
▁데이트	-7.46373
한테	-7.46678
▁술	-7.46905
▁무슨	-7.47303
▁사람은	-7.47834
▁주세요	-7.47853
▁방법	-7.479
겠죠	-7.48113
에게	-7.49625
▁들어	-7.49972
▁말고	-7.50502
▁도움	-7.50821
해주세요	-7.50975
▁어떤	-7.5152
▁그래	-7.51652
▁헤어진지	-7.51683
▁감정	-7.51989
▁새로운	-7.5201
▁보고	-7.52258
▁만큼	-7.52269
▁남	-7.52305
▁바라요	-7.53965
니	-7.54377
▁올	-7.5449
▁힘들어	-7.54653
▁있을까	-7.55052
▁짝사랑	-7.55391
던	-7.55448
▁않는	-7.5591
▁남자	-7.5596
합니다	-7.56151
까지	-7.56639
▁않	-7.57107
른	-7.57398
▁쉽지	-7.57398
항	-7.57652
▁하	-7.58044
▁곳	-7.58237
심	-7.58315
▁않을	-7.58583
▁따라	-7.59049
거라	-7.59229
▁생각이	-7.59679
▁고민	-7.59759
▁직접	-7.60428
▁돈	-7.60568
해도	-7.6057
▁공부	-7.60749
▁관심	-7.61269
▁하면	-7.61349
▁될까	-7.61438
▁싶은	-7.61636
▁후회	-7.61996
데	-7.62482
▁시작	-7.63003
▁결혼	-7.63094
▁열	-7.63117
와	-7.63182
▁누구	-7.63363
래	-7.63772
▁애	-7.64354
▁친구가	-7.64367
▁괜찮아요	-7.64527
▁날	-7.64806
▁짝녀	-7.65826
▁줄	-7.65875
▁이유	-7.65885
▁하루	-7.65898
▁오래	-7.66577
▁내일	-7.66932
▁얼	-7.66955
▁찾아	-7.6736
▁만날	-7.67442
▁맘	-7.68367
▁그냥	-7.68689
▁변화	-7.68732
부터	-7.68944
▁중	-7.69299
▁기억	-7.70255
다면	-7.70574
▁마음에	-7.70601
거나	-7.70684
▁있죠	-7.71178
▁운동	-7.71854
▁쉬	-7.72255
▁여행	-7.7267
질	-7.73207
이죠	-7.74809
▁만들어	-7.74871
▁보	-7.7544
▁머리	-7.75641
▁스트레스	-7.75646
건	-7.76846
▁사랑하는	-7.77198
▁마음의	-7.78139
▁아	-7.78145
해서	-7.78166
▁꼭	-7.78739
면서	-7.79036
▁중요한	-7.79692
진	-7.79982
▁기분	-7.80231
▁아니라	-7.80835
군요	-7.81006
▁듯	-7.82142
▁끝	-7.82193
▁이렇게	-7.82274
▁거라	-7.82461
▁볼	-7.82664
▁문제	-7.82959
▁중요해	-7.83261
▁싫어	-7.83279
▁정리	-7.83373
기도	-7.83393
▁고백	-7.84679
▁믿어	-7.85115
▁물어보	-7.85185
▁언제	-7.853
까	-7.85336
▁제	-7.85353
▁않은	-7.85584
만큼	-7.8568
▁오세요	-7.85821
▁이별을	-7.86065
▁기대	-7.86066
▁이젠	-7.86433
▁1	-7.86527
▁가장	-7.86565
▁되	-7.87188
▁큰	-7.87769
▁나만	-7.87849
▁2	-7.88106
까요	-7.88224
나를	-7.88313
▁늦	-7.88324
겠네	-7.88613
천	-7.88803
▁가는	-7.88876
▁조심하세요	-7.89247
인지	-7.89253
▁맛있	-7.89347
▁후	-7.89691
▁짝남이	-7.89721
▁해야	-7.89823
▁용기	-7.90078
▁연락이	-7.9137
▁할까	-7.91756
▁꿈	-7.91814
▁필요	-7.9221
▁연락해	-7.92838
간	-7.92965
▁해도	-7.93356
▁잘할	-7.93356
▁우리	-7.93429
대한	-7.93463
▁카톡	-7.94223
▁헤어진	-7.94489
▁힘드네	-7.95022
적인	-7.9512
▁필요해	-7.95171
긴	-7.95568
수	-7.95616
▁같은	-7.95724
▁말아	-7.96342
처럼	-7.96502
▁되는	-7.96718
▁당신이	-7.96872
▁스스로	-7.97303
▁천	-7.97528
▁현실	-7.97613
▁상대방	-7.98137
것도	-7.98413
▁3	-7.98803
▁너	-7.99054
▁반	-7.99262
▁인생	-7.99303
대	-7.99682
▁나쁜	-7.99829
▁가지	-8.00132
려고	-8.00819
▁인연이	-8.01012
▁예의	-8.01276
▁모두	-8.01305
▁짝남	-8.01373
▁연락을	-8.01521
▁마	-8.01707
▁점	-8.01947
▁확신	-8.02004
▁있는데	-8.02005
▁피	-8.0204
▁회사	-8.02095
▁시간을	-8.02543
▁집	-8.02837
수록	-8.03204
했어	-8.0322
려	-8.03342
▁많았	-8.03956
▁덜	-8.04254
▁상처	-8.04335
▁나이	-8.04426
▁타는	-8.04658
아요	-8.04936
▁필요한	-8.04944
▁요즘	-8.05235
▁연습	-8.05613
자	-8.05695
▁관계	-8.0593
▁알아	-8.06006
마세요	-8.0646
게요	-8.0662
▁모르겠어요	-8.06709
방	-8.06809
▁사람들이	-8.06934
▁있다면	-8.06989
▁돼	-8.07159
습니다	-8.07222
▁선택	-8.07442
▁가고	-8.07629
점	-8.07814
▁미련	-8.07831
▁결정	-8.07862
▁노래	-8.08155
▁많아	-8.08272
에는	-8.08449
▁전화	-8.08625
▁안돼	-8.0932
걸	-8.09385
▁어느	-8.09454
▁가끔	-8.09463
▁모르는	-8.09596
▁정	-8.09617
▁자	-8.09839
▁매일	-8.10193
▁기다려	-8.10586
▁정리가	-8.10632
▁사랑에	-8.10808
이라	-8.11862
▁비	-8.11905
▁어디	-8.12026
▁번	-8.12592
▁좋아할	-8.12959
▁쉬운	-8.13009
▁없을	-8.13383
마다	-8.13594
▁딱	-8.13956
▁나한테	-8.14104
▁같은데	-8.14132
▁않았	-8.14244
▁모든	-8.14299
▁있었나	-8.14466
▁들	-8.14485
자고	-8.14604
제일	-8.14924
▁사세요	-8.15263
▁집에	-8.15463
리	-8.15531
▁몸	-8.15685
▁걱정	-8.15718
▁힘내세요	-8.15753
▁그녀	-8.15863
▁기	-8.1604
▁놀	-8.1665
▁잠	-8.16848
▁말씀	-8.17168
▁신경쓰지	-8.173
▁사는	-8.17316
▁진심	-8.17628
▁잘하는	-8.17661
▁보는	-8.18141
▁보내	-8.18399
하죠	-8.1844
▁언젠	-8.18626
▁좋겠다	-8.1882
▁한번	-8.19156
▁날이	-8.19498
▁행복	-8.19769
장	-8.19947
▁신경	-8.20065
▁잠시	-8.201
▁싶어요	-8.20342
▁모습	-8.20589
▁추억	-8.20994
▁되길	-8.21027
때	-8.21246
▁상대	-8.21452
▁되지	-8.21628
▁모르겠어	-8.21913
▁대	-8.22429
▁않죠	-8.2269
하기	-8.22856
▁완전	-8.2332
된	-8.23337
▁자주	-8.2337
▁하죠	-8.23428
시	-8.2345
▁자신이	-8.23822
▁오	-8.24162
▁기분이	-8.24225
적	-8.24289
▁길	-8.24604
▁금	-8.24629
할까	-8.2482
▁맞는	-8.2487
▁주무	-8.24993
▁앞에	-8.25162
▁가져	-8.25335
▁만들	-8.25355
▁아닌	-8.26385
▁된	-8.26636
▁의미	-8.2677
▁귀	-8.26839
▁같	-8.26856
▁감기	-8.26994
▁없네	-8.27297
▁얼마	-8.27464
▁다가가	-8.27651
▁차	-8.27671
하면서	-8.27944
실	-8.27963
▁처음	-8.28419
▁좋아해	-8.29015
▁잘하고	-8.29194
▁오늘도	-8.29316
▁바쁘	-8.29582
▁밥	-8.29721
▁화	-8.30204
▁정도	-8.30214
▁때문에	-8.30483
아	-8.30486
▁기다리	-8.30536
▁와	-8.30654
▁영화	-8.31032
▁아직도	-8.31151
▁결국	-8.31173
릴	-8.31215
▁확인해	-8.31411
▁자기	-8.31613
▁적	-8.31629
▁네	-8.31756
▁뭘	-8.3185
▁핸드폰	-8.31965
▁자체	-8.32059
▁거죠	-8.32199
▁헤어짐	-8.32226
▁원하는	-8.32365
▁이런	-8.32437
겠지만	-8.32438
▁것이	-8.32466
▁살고	-8.32476
▁좋겠어	-8.3248
▁한달	-8.3278
▁나는	-8.32788
함	-8.33033
찍	-8.33061
달라고	-8.33083
▁물	-8.33277
▁슬픈	-8.33762
정	-8.33786
▁즐거	-8.33901
▁후폭풍	-8.33948
▁아픈	-8.33987
▁타	-8.34009
▁그분	-8.34749
▁두	-8.34798
▁말이	-8.34833
▁찾아보	-8.34836
하	-8.35554
▁삶	-8.35568
▁주	-8.35576
▁이별이	-8.35652
▁사람들	-8.35664
드	-8.35674
▁이상	-8.35685
▁커피	-8.35697
▁어제	-8.35743
▁고민이	-8.36005
▁잔	-8.36007
차	-8.36014
▁싶은데	-8.36079
▁없다	-8.36119
▁합니다	-8.36198
치	-8.36567
▁마지막	-8.36813
했던	-8.36886
▁예뻐	-8.36924
▁부모님	-8.37004
▁좋	-8.37131
릴게요	-8.37606
▁갈	-8.3763
▁많아요	-8.37748
▁만나는	-8.38171
▁물어보는	-8.38445
▁건강	-8.38712
▁전에	-8.38824
▁해주세요	-8.38919
▁여유	-8.39142
▁따뜻	-8.39377
▁곧	-8.39462
▁부	-8.39492
▁다음에	-8.39688
▁갑	-8.39906
러	-8.39983
▁물어	-8.40063
▁좋을까	-8.40332
자기	-8.40333
날	-8.40337
▁아파	-8.40415
▁갖	-8.40665
들	-8.4069
▁약	-8.40987
▁엄청	-8.41107
▁사이	-8.41201
이나	-8.41202
▁위해	-8.41245
▁나중에	-8.41424
▁확실한	-8.41622
▁중요하지	-8.41721
▁미리	-8.41751
▁사랑했던	-8.41876
여	-8.42105
▁고생	-8.42416
▁손	-8.42663
주	-8.43191
제	-8.43274
▁소중	-8.4346
했나봐	-8.43655
▁난	-8.44004
▁재미	-8.44191
▁다를	-8.44283
▁쉽	-8.44688
▁아픔	-8.45207
▁바람	-8.45282
▁빨리	-8.45516
▁날씨	-8.4552
▁힘들지	-8.45675
겠지	-8.46082
▁새	-8.46207
▁지	-8.46367
했어요	-8.46403
▁해봐요	-8.46518
▁힘들게	-8.47138
▁맛있는	-8.47322
▁받아	-8.47418
▁아침	-8.47766
▁사진	-8.47958
▁예쁘	-8.48051
보	-8.48204
답	-8.48286
신	-8.48324
▁얼굴	-8.4835
▁무	-8.48794
▁바쁜	-8.48864
▁보면	-8.49002
▁편이	-8.49525
▁만	-8.49611
▁감	-8.49673
▁아는	-8.49717
▁꽃	-8.49718
▁잠깐	-8.49726
▁생길	-8.49756
▁드	-8.49769
~	-8.49778
▁자신감	-8.49804
▁일어나	-8.50078
▁어때	-8.50296
달	-8.50345
▁남자가	-8.50353
▁주는	-8.50496
져	-8.50503
▁줘	-8.50658
▁곳이	-8.50659
▁만나지	-8.50716
하는데	-8.50754
▁헤어지고	-8.50908
▁호감	-8.50969
이라면	-8.5136
!!	-8.51706
▁가세요	-8.51974
▁서로에	-8.51983
싶네요	-8.52298
▁소개팅	-8.52396
▁남자애	-8.52561
▁만남	-8.527
▁힘이	-8.52765
▁뿐	-8.52783
▁소리	-8.52826
▁몇	-8.52869
▁좋겠죠	-8.52992
▁진정	-8.53123
▁먹으면	-8.53139
▁맞	-8.53258
▁추천	-8.53385
▁해볼까	-8.53442
▁그래요	-8.53892
▁직장	-8.53983
▁엄마	-8.54023
▁상관	-8.54421
▁여친	-8.54446
▁실수	-8.5451
▁되나	-8.54531
▁맛	-8.54665
▁표현	-8.54665
▁먹	-8.54772
보면	-8.54859
▁사귀고	-8.54888
▁긴	-8.5495
▁사람한테	-8.55151
하네	-8.55216
▁받을	-8.55422
이야	-8.55665
▁놀아	-8.5586
▁당	-8.56079
▁많	-8.5621
▁멋진	-8.56307
▁같애	-8.56324
▁자책하지	-8.56343
▁좋지	-8.56385
▁재회	-8.56438
인가봐	-8.56481
▁작은	-8.56488
▁기회	-8.56549
▁노력	-8.56588
▁아닐까요	-8.56755
▁대해	-8.57019
▁그만	-8.57157
▁힘들었	-8.57172
▁지켜	-8.57256
▁사귀는	-8.5735
이랑	-8.57421
▁뿐이	-8.57453
줄	-8.57813
▁챙겨	-8.57821
▁말해	-8.5787
▁동	-8.57919
▁있지	-8.57929
▁파	-8.5851
울	-8.58511
지는	-8.58557
▁괜찮은	-8.58567
개월	-8.58765
▁않는다면	-8.58806
용	-8.58808
트	-8.5882
▁않고	-8.58871
▁자연스러	-8.59061
▁정신	-8.59151
▁위로	-8.59169
▁그러면	-8.59516
▁힘	-8.59867
▁되어	-8.59869
▁안해	-8.59892
▁중에	-8.60007
▁티	-8.60033
▁왔어	-8.60136
▁위	-8.60885
통	-8.60956
▁알았는데	-8.61173
▁절대	-8.61231
▁괜찮	-8.61248
▁세상	-8.61262
▁뭘까	-8.61332
▁했는데	-8.61358
음	-8.61371
▁축하해요	-8.61374
▁이해	-8.61396
▁시기	-8.61536
▁나서	-8.61564
구	-8.61638
▁가슴	-8.6195
야지	-8.6204
▁말씀해	-8.63066
▁남친	-8.63177
금	-8.63234
▁벌써	-8.63439
▁분위기	-8.63461
▁같습니다	-8.6354
▁둘	-8.63806
▁받아들이는	-8.64008
있는	-8.64088
▁미련이	-8.64092
▁생각나	-8.64773
번	-8.64832
임	-8.64891
▁믿	-8.64902
▁입	-8.65277
▁차이	-8.65356
▁선	-8.65363
▁썸남	-8.65413
갈	-8.65652
▁우산	-8.65941
▁어려워	-8.65981
▁어떡해	-8.66034
더라고요	-8.66082
▁짝남한테	-8.66194
없이	-8.66408
▁5	-8.66482
▁연락하고	-8.66554
▁만난	-8.66741
▁되겠	-8.66803
▁헤어지	-8.67276
▁것보다	-8.67479
▁주변	-8.67693
▁순간	-8.6777
▁게임	-8.67865
▁꾸준	-8.67946
▁못하는	-8.68199
▁일을	-8.68272
▁옷	-8.68396
소	-8.68417
나요	-8.68423
며	-8.68518
▁있잖아	-8.6857
▁생각할	-8.68806
▁받고	-8.68942
▁드는	-8.68956
▁보지	-8.69051
▁느낌	-8.69056
▁후회하지	-8.69112
▁만나고	-8.69317
▁아닌지	-8.69345
▁연인	-8.69555
▁하늘	-8.69581
▁해보는	-8.69836
덧	-8.70133
▁도전	-8.7015
인가	-8.70501
▁좋아하	-8.70583
▁궁금해	-8.70647
▁어려운	-8.71173
▁적당히	-8.71177
▁괜찮을	-8.71325
▁안녕	-8.71495
▁차단	-8.71831
▁않을까요	-8.71849
라면	-8.71927
▁끝나	-8.71944
▁자신에게	-8.72062
▁구	-8.72143
▁끝이	-8.72468
▁나와	-8.72732
디	-8.72794
▁아프	-8.73415
▁정리하는	-8.73459
▁살아	-8.73703
▁필요하겠	-8.73799
▁종교	-8.73832
▁보통	-8.73895
▁방법이	-8.73898
▁최선	-8.74099
▁데	-8.74119
▁알바	-8.74135
▁잊지	-8.74577
▁알고	-8.74604
단	-8.74727
▁이야기해	-8.74876
▁학교	-8.74936
▁잠이	-8.75049
▁로맨틱	-8.7506
▁넘	-8.75375
럽	-8.75453
▁이별의	-8.75854
▁장	-8.75867
▁싶	-8.75878
▁능력이	-8.75981
▁성공	-8.76204
텐데	-8.7621
▁행동	-8.76284
▁잊는	-8.76368
▁후회할	-8.76386
▁없이	-8.76577
▁병원	-8.76609
▁가기	-8.76705
▁아닌데	-8.76718
▁현상	-8.76863
▁6	-8.76939
▁상황이	-8.77258
▁내려	-8.77272
▁하는데	-8.77349
것	-8.77442
▁생각해보세	-8.77604
고생	-8.77746
▁알아보	-8.77929
▁복	-8.78079
▁카페	-8.78188
▁떠나	-8.78793
▁나을	-8.78818
▁걸까	-8.78857
▁쉬어	-8.78922
▁살펴	-8.79001
▁잘못	-8.79022
▁인정	-8.79084
었어	-8.79341
▁좋아하면	-8.79361
▁경우	-8.79388
짝	-8.79795
▁분	-8.79932
▁친구한테	-8.80092
▁남편이	-8.80115
▁끝을	-8.80117
▁달라지는	-8.80182
▁4	-8.80415
▁받는	-8.80441
▁그녀를	-8.80619
셔	-8.80651
▁같네	-8.80687
▁기다리는	-8.8071
▁세	-8.80773
▁어	-8.81163
린	-8.81174
더니	-8.81862
▁힘들겠	-8.81993
들이	-8.82129
▁비싸	-8.82225
▁아닐	-8.82314
졌어	-8.82384
▁버텨	-8.82404
▁시작이	-8.8244
▁축하드려요	-8.82448
▁봅니다	-8.82463
▁성격이	-8.82512
▁놓아주	-8.82543
▁의사	-8.82569
▁않았으면	-8.82646
▁무엇이	-8.82873
▁용기내	-8.82877
▁저에게	-8.83005
야죠	-8.83062
▁생기	-8.83068
▁헤아리	-8.8307
▁쓰	-8.83163
▁막	-8.83267
란	-8.83324
▁세상에	-8.83425
▁노력하	-8.83607
▁고민하	-8.83726
▁설레	-8.83844
▁행복해	-8.83851
▁있으	-8.84026
▁받지	-8.84036
다가	-8.84503
내	-8.8454
▁마련	-8.84779
▁건지	-8.84965
▁헷갈리	-8.8546
시군요	-8.8551
▁한동안	-8.85542
▁부담스럽	-8.85601
▁행복하	-8.85624
사람을	-8.85738
▁환승	-8.85975
▁됐어	-8.86022
▁습관	-8.86071
▁드시	-8.86109
▁법	-8.86196
▁꿈에	-8.86196
▁관리	-8.86248
▁확실	-8.86271
▁힘들겠지	-8.86432
발	-8.86567
▁그대로	-8.86625
▁감사	-8.86737
▁화장	-8.86741
▁그러	-8.86935
▁말하는	-8.87015
▁이상형	-8.87146
다니	-8.87246
▁있으니까	-8.87271
▁그렇지	-8.87354
듯	-8.8757
▁사랑할	-8.87725
시길	-8.87919
▁만남이	-8.88028
▁거짓말	-8.88164
▁알게	-8.88274
▁사랑한	-8.8838
림	-8.88382
▁편	-8.88579
▁화장실	-8.88604
▁옆에	-8.88622
▁인	-8.88751
▁제대로	-8.88753
▁책	-8.88896
▁살펴보	-8.89093
▁차분	-8.8915
만에	-8.89184
▁힘내	-8.89186
▁행복한	-8.89381
▁싫다	-8.89472
▁오는	-8.89527
▁상황을	-8.89565
론	-8.89768
▁돈이	-8.89827
선	-8.899
▁모르	-8.89911
▁잊어버리	-8.90067
▁힘들다	-8.9008
▁모	-8.90203
▁글	-8.90389
▁버리	-8.90641
▁사랑하고	-8.90769
냐	-8.9103
▁봐	-8.9109
가서	-8.91314
집	-8.9137
▁사람에	-8.91398
▁배	-8.91409
▁상처받	-8.91438
▁사람에게	-8.91658
▁추억이	-8.91705
▁발	-8.91729
▁여친이	-8.91743
▁하다보	-8.91746
▁낫	-8.91748
▁선물이	-8.91854
▁약속	-8.91855
▁뭔지	-8.91933
▁지나갈	-8.9196
▁인기	-8.92051
▁하셨	-8.92091
일째	-8.92206
▁상담	-8.9225
중	-8.92289
▁코	-8.92372
▁풀	-8.92616
▁별	-8.92652
▁목	-8.92733
▁잊을	-8.93033
▁선택일	-8.93325
▁다르	-8.93368
▁써	-8.93493
▁잊혀지	-8.93823
해야	-8.93903
▁준비하	-8.93955
▁소식이	-8.9397
▁편하	-8.94003
▁숨	-8.9402
▁되었	-8.94193
▁나가	-8.94518
▁짧	-8.94914
▁본인	-8.9493
엔	-8.94998
▁어플	-8.95123
▁휴식	-8.95186
일까	-8.95238
▁지쳤나	-8.95301
▁귀찮아	-8.95315
▁등	-8.95382
▁쇼핑	-8.95415
▁속	-8.9546
▁인연	-8.95663
▁따로	-8.9574
▁많죠	-8.95866
▁괜찮아질	-8.95986
▁답	-8.96097
▁여러	-8.96108
어보세요	-8.96287
▁물어봐	-8.96313
리는	-8.96326
▁호감이	-8.96437
▁좋아하나	-8.96514
▁혼자만	-8.96702
▁생각만	-8.96747
어도	-8.96844
▁다행이	-8.96963
▁벌	-8.97037
▁첫사랑	-8.97046
▁정리하	-8.97203
▁모르겠네	-8.97425
▁하기	-8.97616
▁여자애	-8.97705
▁느낌이	-8.97878
▁두려워	-8.98121
땐	-8.98446
▁감정이	-8.98495
▁무시하	-8.98515
▁괜	-8.98518
▁기다릴	-8.98539
▁자존감	-8.98579
▁썸남이	-8.98653
▁다르겠지	-8.98888
▁못하겠어	-8.98913
▁안되는	-8.9898
▁뭐야	-8.9907
▁해결	-8.99322
▁되기	-8.99408
▁부담	-8.99542
▁않으면	-8.99593
▁별로	-8.99664
▁시원	-8.99665
▁후련하	-8.99872
▁존재	-8.99974
▁발전	-9.00034
▁이별에	-9.00192
▁사랑하면	-9.00364
▁괜찮아	-9.00387
▁것을	-9.00439
▁울어	-9.00505
▁곳에	-9.00521
낼	-9.0077
▁좋아하게	-9.00835
▁생겼	-9.01027
보는	-9.0105
▁사람과	-9.01166
▁다음	-9.01186
▁종	-9.01205
두	-9.01409
볼까	-9.01423
▁먹는	-9.01436
▁필요할	-9.01867
▁봄	-9.01947
▁어쩔	-9.02059
▁예쁜	-9.02085
▁바뀔	-9.02127
▁가능	-9.02306
▁먹어야지	-9.02316
▁괜찮을까	-9.02389
▁맨날	-9.02462
▁필요하죠	-9.02509
▁걱정하지	-9.02513
▁신경쓰	-9.0252
▁사귀	-9.02572
▁누가	-9.02575
▁중요하	-9.02649
▁가능성	-9.02682
▁소	-9.02682
었던	-9.02815
▁청소	-9.02841
▁마련이	-9.02927
사	-9.03217
▁여	-9.03341
▁다행	-9.03877
▁과정	-9.04181
감	-9.04197
▁스타일	-9.0422
▁위로해	-9.04502
▁생각하는	-9.04577
난	-9.04621
을지도	-9.04735
▁어때요	-9.04764
▁않으니	-9.05226
▁없애	-9.05304
더라	-9.05409
▁언젠가	-9.05505
▁질투	-9.05515
▁연락해도	-9.05569
▁비밀	-9.05825
▁주지	-9.05859
▁욕	-9.05867
▁미래	-9.05868
▁친구들과	-9.05955
▁만났어	-9.06022
▁이번	-9.06049
▁만드	-9.06161
▁못해	-9.06205
▁실감	-9.06305
는건	-9.06319
▁지났네	-9.0634
▁고	-9.06749
마	-9.06749
기는	-9.06825
▁아프네	-9.06832
▁뭐라고	-9.0692
▁챙겨드	-9.07011
▁보이	-9.07054
줘	-9.07107
▁이제는	-9.07167
▁타고	-9.07231
말고	-9.07296
▁상관없	-9.07365
▁해서	-9.07435
▁인생이	-9.07517
▁적극적	-9.07568
▁상처를	-9.07591
▁폰	-9.07734
봐	-9.07751
▁확인	-9.07835
▁칭찬	-9.07871
▁연락하는	-9.07945
▁좋아하는데	-9.0798
▁단	-9.0805
▁척	-9.08592
▁강	-9.08676
▁연락하지	-9.08764
▁먹을	-9.08784
▁보러	-9.0889
었길	-9.09216
▁생각하	-9.09228
으세요	-9.09387
▁중요	-9.09472
팅	-9.09518
▁월급	-9.09535
▁있나요	-9.09629
▁평소	-9.09681
▁안타깝	-9.09694
▁마스크	-9.09694
▁심호흡	-9.09694
▁목소리	-9.09697
▁음식	-9.09739
▁벗어나	-9.09788
▁쐬	-9.098
▁취미	-9.0985
▁관심사	-9.09877
▁한잔	-9.0992
▁짝녀한테	-9.09923
▁좋을텐데	-9.09931
▁개	-9.1004
▁뭐라	-9.10052
▁즐기세요	-9.10125
다는	-9.10221
▁궁금하네	-9.10295
▁배우	-9.10297
분	-9.10355
▁주면	-9.1075
▁매	-9.10755
▁존중	-9.10808
▁생각하지	-9.10817
▁조	-9.1082
▁온	-9.10876
하거나	-9.10918
▁있습니다	-9.10979
▁거울	-9.11
▁되고	-9.11052
▁편한	-9.11154
▁원	-9.11332
▁싶지	-9.11524
▁시켜	-9.11542
▁못하고	-9.11636
▁속이	-9.11785
가요	-9.11867
▁했어	-9.11876
▁운명	-9.11891
▁솔직하	-9.12064
▁이해해	-9.12231
▁웃	-9.12249
▁신	-9.12261
▁최	-9.12438
▁유	-9.12459
▁쉬는	-9.1289
▁당당하	-9.12913
▁우	-9.13068
▁이별후	-9.13078
놓고	-9.13078
▁자세	-9.13089
▁깨	-9.13113
▁연락처	-9.13124
▁간다	-9.13139
▁흘렀네	-9.13165
▁괜찮아졌	-9.1335
같은	-9.13366
▁주고	-9.13379
▁잊고	-9.13631
▁공	-9.13666
▁바빠	-9.13679
▁온전	-9.13684
▁결과	-9.13784
▁시험	-9.13852
▁뭔가	-9.13894
▁헤어졌습니다	-9.13918
▁고민이야	-9.13961
▁눈치	-9.14006
▁빌려	-9.14027
▁눈에	-9.14151
▁순	-9.14196
▁크게	-9.14235
▁안하고	-9.14263
▁증거	-9.14363
▁기운	-9.14451
▁거니	-9.14517
▁뜻	-9.1452
▁남자들	-9.14665
가슴이	-9.14736
▁죽을	-9.14744
▁행복할	-9.15085
워	-9.15189
▁있지만	-9.15202
▁말도	-9.15222
▁되네	-9.15265
▁질	-9.15391
▁첫	-9.15461
▁조언	-9.15686
▁만났	-9.15835
▁마셔	-9.15897
▁밤	-9.15913
살	-9.15937
▁짐	-9.16091
▁자신만	-9.16129
▁저도요	-9.16135
▁사랑해	-9.16246
했는데	-9.16255
▁어서	-9.16564
▁감정에	-9.16678
▁피해	-9.16733
▁피하	-9.16792
▁그랬	-9.1683
▁마시	-9.16883
▁양	-9.17012
▁끝내	-9.17082
되	-9.17104
겨	-9.17145
▁좋다	-9.17409
션	-9.17694
▁친구들	-9.17728
곰	-9.17734
이라고	-9.1775
록	-9.17785
▁푹	-9.17795
차근	-9.17808
▁계획	-9.17827
▁분명	-9.17842
▁드디어	-9.17856
▁알려줘	-9.17862
▁다이어트	-9.17868
▁치과	-9.17881
증	-9.17888
▁눈물	-9.179
▁헤어졌어	-9.1791
▁영	-9.17929
▁떨려	-9.1793
▁전여친	-9.18121
▁준	-9.18125
▁모아	-9.18164
▁싸	-9.18174
▁최고죠	-9.18176
▁지금처럼	-9.18243
▁최고	-9.18331
▁찾아올	-9.18387
▁어울리	-9.18432
▁가져보	-9.18493
▁부러워요	-9.18654
비	-9.18685
▁극복	-9.18698
▁휴가	-9.18878
▁탈	-9.18885
▁행복하게	-9.18957
▁이사	-9.18987
드릴	-9.19015
▁연락하면	-9.19018
▁밖에	-9.19168
으니까	-9.19207
▁안전	-9.19266
▁부분	-9.19404
▁기본	-9.19776
▁시	-9.19797
했	-9.20051
▁건강에	-9.20284
까봐	-9.20317
▁자신에	-9.20491
▁친구들이	-9.20552
▁군대	-9.20558
▁편지	-9.20854
▁그것	-9.20967
스	-9.20977
▁그러게	-9.21148
한다면	-9.21184
▁분이	-9.21229
▁상황	-9.21319
▁먹어	-9.21425
▁이해해주	-9.21533
▁보여	-9.21607
칠	-9.21836
▁있을거예요	-9.2199
▁직접적	-9.22157
▁현재	-9.2218
▁멈추	-9.22181
▁연예인	-9.222
▁SNS	-9.222
▁이겨낼	-9.22204
▁원래	-9.22234
▁응원합니다	-9.22242
▁우울	-9.2227
었나봐	-9.22334
▁사소	-9.22385
▁듣고	-9.22394
▁소화	-9.22427
▁지내	-9.22648
▁문자	-9.22675
▁안돼요	-9.22685
▁자연스	-9.22749
▁사랑한다면	-9.22817
▁상	-9.22825
거야	-9.22875
▁어렵	-9.22895
▁남친이	-9.22933
▁식	-9.22942
▁깊은	-9.22958
▁저한테	-9.22997
▁떨	-9.2308
▁채워	-9.23128
▁아이	-9.23206
성	-9.23213
▁그리고	-9.23242
▁깊	-9.23268
▁내리	-9.2333
들을	-9.23437
▁했나	-9.23457
▁사귀기	-9.23465
▁가족	-9.23485
▁여자애가	-9.23485
▁추천해	-9.23506
▁조심	-9.23574
▁충전	-9.23657
▁앞	-9.23693
▁않게	-9.23764
▁못할	-9.23945
▁좋은데	-9.24014
돼	-9.24085
▁커	-9.2416
▁주말	-9.24182
▁과정이	-9.24271
주가	-9.24298
▁따	-9.24451
될	-9.24551
런	-9.24572
예	-9.24643
우	-9.24765
르	-9.24829
▁얘기	-9.24841
▁것들	-9.24878
▁돌	-9.25341
▁학	-9.25379
밖에	-9.25383
느라	-9.25443
▁만나면	-9.25713
▁중인	-9.25735
▁거절	-9.25752
▁뒤	-9.25753
겠어	-9.26114
▁가능할	-9.26128
크	-9.26469
쳐	-9.26609
▁취	-9.26615
▁나랑	-9.26673
▁남기	-9.26705
▁은근	-9.26729
▁기분전환	-9.26758
▁부럽네요	-9.26824
▁이성으로	-9.26849
▁재밌	-9.26993
▁가야	-9.27071
어서	-9.27109
▁빼	-9.27118
▁편할	-9.27131
▁조절	-9.27192
▁썸이	-9.27255
▁표현해	-9.27265
▁자격	-9.27448
▁좋지만	-9.27494
콩	-9.27745
▁달	-9.27746
▁습관이에요	-9.27764
▁순간이	-9.27851
▁됩니다	-9.2793
▁그녀가	-9.27996
▁결정이었을	-9.2801
▁꿈이	-9.28087
▁적어	-9.28111
▁말할	-9.28462
▁떠	-9.28585
▁부족한	-9.28826
▁명	-9.28959
▁들어가	-9.28962
▁바라	-9.2897
▁꾸	-9.2907
▁집에서	-9.29237
▁재미있	-9.29278
▁있겠죠	-9.29287
렇게	-9.2935
▁했던	-9.29385
▁여기	-9.29511
▁걱정이	-9.2953
가면	-9.29752
▁개인	-9.29782
▁초	-9.29902
전	-9.29907
보고	-9.29945
▁쉬어가	-9.29963
▁찾기	-9.30223
▁거겠죠	-9.30328
▁없나	-9.30426
▁프사	-9.30649
동안	-9.30918
▁두달	-9.31047
료	-9.31186
▁완벽	-9.31325
▁맞춰	-9.31376
▁혹시	-9.31482
▁각자	-9.31493
▁무서워	-9.31517
▁생각이에요	-9.31578
▁타이밍이	-9.31636
▁근처	-9.31696
피	-9.31713
▁똑같은	-9.31772
▁앞으로	-9.31795
▁습관이	-9.32205
▁도서관	-9.32359
▁가능하	-9.32401
▁학원	-9.32413
▁일상	-9.32447
▁많을	-9.32495
▁있고	-9.32509
▁비교하	-9.32541
▁오해	-9.32622
▁마다	-9.32738
▁생일	-9.32774
▁본	-9.33208
▁전해	-9.3322
▁죽	-9.33244
▁달라	-9.33287
이면	-9.3343
▁돌아가	-9.33636
▁받	-9.3375
▁맞았	-9.33953
식	-9.34029
▁독	-9.34052
▁싫은	-9.34061
▁보기	-9.34416
▁않나	-9.34525
지내고	-9.34551
▁부분이	-9.34713
께	-9.34762
주는	-9.34966
▁긍정적	-9.35155
말	-9.35215
▁남을	-9.35331
▁사실	-9.35382
▁무엇	-9.35448
▁힘들었을	-9.35617
▁짝사랑이	-9.3572
▁알려주	-9.36196
곤	-9.36339
는지	-9.36365
▁맡	-9.3644
▁가벼	-9.36456
▁사귈	-9.36478
▁오빠	-9.3648
▁발표	-9.36481
▁담배	-9.36484
▁멋져	-9.3649
▁골라	-9.36502
▁지칠	-9.36548
▁오랜만에	-9.36574
하니까	-9.36584
▁남겨	-9.36598
▁필요하다면	-9.36607
라는	-9.36645
▁다녀오세요	-9.36649
▁커플	-9.36659
▁솔직한	-9.36758
▁소비	-9.36808
▁동안	-9.3683
▁그동안	-9.36834
▁있겠	-9.36902
▁생각나는	-9.36958
냐고	-9.37093
초	-9.37219
▁사랑해주	-9.37689
▁공부하	-9.37824
▁만나자	-9.37841
▁바보	-9.37924
▁반대	-9.37984
▁전남친	-9.38003
▁주변에	-9.38111
▁잊으	-9.38121
▁높	-9.38136
▁살아야	-9.38201
▁이상한	-9.38203
▁지나갔	-9.3826
▁고통	-9.38277
▁믿음이	-9.38284
▁말하	-9.38329
▁썸녀	-9.38351
▁알면	-9.38488
을까	-9.38618
지지	-9.387
▁담	-9.3872
창	-9.38976
오세요	-9.39065
▁남았	-9.39271
▁볼까	-9.39317
▁멍	-9.39322
▁방	-9.39447
▁귀엽	-9.39467
▁텐데	-9.39682
리고	-9.39913
▁내는	-9.39923
▁인사	-9.39979
▁없겠네	-9.40283
▁당연	-9.40531
▁당황	-9.40571
▁아니니	-9.40588
걸까	-9.40692
▁음악	-9.40898
약	-9.4109
▁싫	-9.41195
▁간절	-9.41316
▁장난	-9.41357
▁짝사랑하는	-9.41409
▁시작해	-9.4142
▁되면	-9.41447
껏	-9.41652
▁아름다	-9.41666
▁달콤	-9.41738
▁빠르	-9.4175
▁달달	-9.41769
▁진실	-9.41775
▁떠난	-9.41776
▁누군가	-9.41788
▁지난	-9.41841
▁힘든가봅니다	-9.41873
▁태어난	-9.41895
▁전환	-9.41945
▁상사	-9.41962
▁상상	-9.41969
▁이겨내	-9.42007
▁나오	-9.42101
▁않겠지만	-9.42137
▁새로	-9.42182
▁생활	-9.42184
▁글로	-9.4225
▁곁에	-9.42257
▁없나봐	-9.42423
▁마음으로	-9.42577
종	-9.42593
먹기	-9.42841
▁신고하	-9.42931
▁쓰는	-9.42987
셨나봐	-9.42988
해야지	-9.43051
▁바뀌	-9.43071
▁받았어	-9.43085
▁스킨십	-9.43179
▁능력	-9.43216
▁청	-9.43304
▁방학이	-9.4335
▁후회하	-9.43376
리기	-9.43651
▁다녀	-9.43849
▁중간	-9.44045
▁산책	-9.44426
▁참아	-9.44427
▁떨리	-9.44448
▁재	-9.44513
▁간	-9.44547
▁그리워	-9.44564
▁취업	-9.44593
▁있으니	-9.44682
▁답장	-9.44731
▁없지	-9.44766
하셨	-9.44786
▁노력하는	-9.44799
▁나타	-9.45031
▁미	-9.45173
당	-9.45515
▁키우	-9.45561
하길	-9.45575
▁집중	-9.4575
▁기다리면	-9.45816
▁사이에	-9.45824
했으면	-9.45919
하다	-9.4595
▁매력	-9.46014
야겠다	-9.46352
▁보고싶어	-9.46428
▁다니	-9.46668
▁챙겨주	-9.46745
▁봐도	-9.46947
▁풀어	-9.4704
▁괴롭	-9.47119
▁성격	-9.47124
▁친구로	-9.47213
▁사랑한다	-9.47231
▁졸업	-9.47258
▁무서운	-9.47261
▁컨	-9.47262
▁공통	-9.47285
▁심경	-9.47292
▁새벽	-9.47293
▁버스	-9.47296
▁기념일	-9.47309
▁위로봇	-9.4731
▁안경	-9.47342
▁안하는	-9.47347
▁늘어	-9.47367
▁유지하	-9.47389
못한	-9.47397
▁다음부터	-9.47414
▁행운	-9.47415
▁집안일	-9.47445
박	-9.47528
▁거기까지인	-9.47539
▁희망	-9.47548
지면	-9.47573
▁밝혀	-9.4758
▁알면서도	-9.47599
▁예민한	-9.47614
▁장거리	-9.47619
▁배려	-9.4763
▁극복할	-9.47638
▁전부	-9.47721
▁외로	-9.47727
은연	-9.47884
▁배우는	-9.47898
년째	-9.47997
▁10	-9.47999
▁찾아가	-9.48042
▁가능해요	-9.48085
▁심하	-9.481
▁맛난	-9.48103
▁내보세요	-9.4811
▁찍	-9.48181
▁해줘	-9.48258
▁눈물이	-9.48313
▁걱정되겠	-9.48341
▁어디서	-9.48396
째	-9.48425
▁있다는	-9.48441
▁붙잡고	-9.48444
▁고백하는	-9.48477
▁살기	-9.48574
다가도	-9.48576
▁아무렇지	-9.48886
▁처음에	-9.49128
▁선택이	-9.49137
▁걸어	-9.49168
해질	-9.49189
▁안나	-9.49218
▁사람이니까	-9.49251
▁흔들리지	-9.49287
▁적응	-9.49351
▁빠지	-9.49648
▁상대에	-9.49707
▁좋아할까	-9.49838
▁있었을	-9.49993
저	-9.50545
별	-9.50681
▁못해요	-9.50706
▁달라고	-9.50813
애가	-9.50971
▁통해	-9.51025
▁걷	-9.51069
▁했나봐	-9.51137
▁터	-9.51176
▁문	-9.51235
▁심해	-9.51418
▁자연	-9.51424
▁연애에	-9.51487
▁해주는	-9.51487
▁키	-9.51521
▁신나	-9.51581
▁생각했나봐	-9.51715
만으로	-9.5194
▁멋있	-9.51969
▁스트레칭	-9.51987
▁될까요	-9.52084
동	-9.5217
▁싶네	-9.52242
▁크	-9.5231
▁사귀어	-9.52372
▁관리하	-9.52543
▁자고	-9.5268
원	-9.52709
▁안들어	-9.52765
▁남들	-9.52811
▁쓰레기	-9.52939
락	-9.53059
▁7	-9.53132
▁넓	-9.53132
▁저녁	-9.53167
▁핑계	-9.53167
▁깨끗	-9.53169
▁외롭	-9.53169
▁회원	-9.5317
▁목표	-9.53171
▁시계	-9.53173
▁버릴	-9.53186
▁냉장고	-9.53187
▁억지로	-9.53187
▁여전	-9.53205
▁피부	-9.53206
▁불러	-9.53211
▁피곤한	-9.53216
▁졸	-9.5323
▁달라지	-9.53439
▁말투	-9.53469
▁잊어	-9.5349
▁걸릴	-9.53605
속에서	-9.53606
테니	-9.53608
▁시작하	-9.53718
▁허전하	-9.53778
조차	-9.53793
겠다	-9.53828
▁슬	-9.53863
▁몰랐	-9.53892
겠습니다	-9.53901
▁문득	-9.53991
▁잊	-9.54017
▁회사에서	-9.54025
▁허	-9.54094
▁사랑했나봐	-9.54102
▁철	-9.54234
▁인상	-9.54273
▁꼬	-9.54332
▁데려다	-9.54337
▁사랑하는데	-9.54403
할때	-9.54589
▁쓰고	-9.54597
ᅲᅲ	-9.54618
▁잡	-9.54636
이라는	-9.54692
꺼	-9.54751
▁복잡하	-9.54783
▁몸에	-9.54805
▁쓴	-9.54893
▁있기	-9.54967
▁둘이	-9.55123
▁줄여	-9.5514
▁이거	-9.55242
▁나에게	-9.55353
▁상대방에	-9.55505
하시	-9.55515
▁놀고	-9.55716
▁되었나	-9.55731
▁톡	-9.5595
▁지나가	-9.56014
▁궁금하	-9.56103
후	-9.56247
▁선생님	-9.56322
▁넣	-9.56339
움	-9.56344
스러운	-9.56415
▁놓	-9.56569
▁차별	-9.56641
▁놀이	-9.56708
▁변하	-9.56903
매	-9.57296
▁비가	-9.57297
▁믿음	-9.57325
▁받으면	-9.57514
▁자리	-9.57656
▁생겼어	-9.57671
메	-9.57692
▁좋겠지	-9.57775
리를	-9.57796
▁필요하	-9.57928
▁틀	-9.57988
▁견뎌	-9.58236
▁했으면	-9.58241
▁후에	-9.58245
▁없으면	-9.58334
▁계	-9.58362
▁끄	-9.58405
같아	-9.58442
글	-9.58463
▁뿌	-9.58497
▁주말이	-9.58589
ᅮ	-9.58753
▁배워	-9.58768
▁두고	-9.58904
▁긴장	-9.5897
▁변	-9.5911
이란	-9.59112
▁무섭	-9.59126
킁	-9.5934
푼	-9.5934
▁단단	-9.5936
▁보험	-9.59413
▁설렘	-9.59413
▁느낄	-9.59413
▁웬수	-9.59413
▁면접	-9.59414
▁30	-9.59418
▁붙여	-9.59424
꼬박	-9.59431
▁에너지	-9.59432
▁우선순위	-9.59445
▁간접적	-9.59451
▁고마워	-9.59454
냈어	-9.59456
▁대단하	-9.59464
▁특별	-9.59464
▁의지	-9.59467
▁그리움	-9.59476
▁인내	-9.59482
▁달라진	-9.59486
▁성별	-9.59491
▁알아차	-9.59507
▁경쟁	-9.59519
▁우선	-9.59566
▁성공하	-9.59633
▁짜증나	-9.59657
▁좋으면	-9.59658
▁나쁘지	-9.59708
▁시어머니	-9.59734
▁망	-9.5974
▁빠를	-9.59783
▁조급해	-9.59807
▁들여	-9.59819
▁통보	-9.59851
▁같지	-9.59874
기만	-9.5997
▁다르겠	-9.59979
▁없겠지	-9.59991
▁여자친구와	-9.60004
▁썸타는	-9.60054
▁평생	-9.60086
▁운전	-9.60088
▁연락해보	-9.6019
▁없어서	-9.60234
▁갈까	-9.60275
▁심	-9.60301
▁이건	-9.6036
▁좋아하시	-9.60373
▁알기	-9.60381
▁먹어보세요	-9.60385
▁궁금	-9.60493
▁위해서	-9.60527
▁선톡	-9.60575
▁싸우면	-9.60618
▁디	-9.60637
▁느껴지	-9.60642
안	-9.60716
▁꿈에서	-9.60788
▁있겠지	-9.60789
▁이어	-9.60804
▁밀당	-9.60841
▁힘들겠어	-9.60859
▁그럼요	-9.60936
▁지내는	-9.60993
해볼까	-9.61086
일이	-9.61119
▁이상해	-9.61254
▁진	-9.61319
▁서	-9.6132
거죠	-9.6132
하겠죠	-9.6153
▁차리	-9.61538
배	-9.61555
▁기다리지	-9.61593
▁나아질	-9.61654
▁물리적	-9.61677
케	-9.6172
▁생각한	-9.61751
▁깨요	-9.62135
▁되는데	-9.62192
▁나올	-9.62306
▁향	-9.6236
▁과식	-9.62435
▁슬프네	-9.62496
▁표현이	-9.62677
▁경험이	-9.62687
▁불행	-9.62701
▁기본이	-9.63062
▁시원하	-9.63128
▁이름이	-9.63175
▁많지	-9.63183
▁사과	-9.63219
▁인간	-9.63304
었는데	-9.63325
▁시작해보	-9.63573
병	-9.6358
▁오면	-9.6366
▁마무리	-9.64006
▁신경쓰이	-9.64012
▁지쳐	-9.64115
▁돌려	-9.64258
▁그럼	-9.64491
좀	-9.64494
스럽	-9.64591
만해도	-9.64616
ᅲ	-9.64674
▁자유	-9.64688
▁번호	-9.64861
▁계절이	-9.64904
▁도와주	-9.65018
▁이럴	-9.65074
▁집착	-9.65129
▁지워	-9.65139
▁싸우	-9.65358
▁살까	-9.65413
▁충전하	-9.65427
▁소원	-9.65452
화	-9.65455
▁맞을	-9.65467
▁흐	-9.65558
▁판단	-9.65767
플	-9.65795
▁놔	-9.658
▁흘렀	-9.65883
봅시다	-9.66007
와서	-9.6607
▁인형	-9.66089
▁드라마	-9.66093
▁권태기	-9.66093
▁콩깍지	-9.66093
▁말해주	-9.66094
▁신중	-9.66111
▁공감	-9.66116
▁향수	-9.66135
▁성향	-9.66138
▁추워	-9.66167
▁받아들이기	-9.66188
급	-9.66194
▁만났는데	-9.66237
▁8	-9.66321
▁어쩌지	-9.66374
하다가	-9.66411
▁미세먼지	-9.66413
▁바꾸	-9.66487
▁불	-9.66508
▁멋지	-9.6657
▁누구에게	-9.66582
▁타는데	-9.66787
▁생각나네	-9.66811
▁도전해	-9.66858
▁돌아	-9.66859
▁소개	-9.6694
▁복잡하겠	-9.66954
▁보이지	-9.66986
▁답답한	-9.67152
는거	-9.67155
▁보다	-9.67325
▁과일	-9.67373
▁느끼는	-9.67373
건가	-9.67403
왔어	-9.67441
▁접	-9.67541
해줄	-9.67553
▁지켜보	-9.67563
▁슬퍼	-9.67645
▁놓고	-9.6765
▁할텐데	-9.67708
돈	-9.67776
▁마주치	-9.67791
▁뭐하지	-9.67818
▁거면	-9.6782
▁죄	-9.67838
▁답답할	-9.6791
▁부모님이	-9.67997
▁바라지	-9.68001
수도	-9.68118
▁안와	-9.68162
▁없는데	-9.68256
▁애매하	-9.68277
기를	-9.68327
▁연락하	-9.6837
함이	-9.68387
▁올려	-9.68443
▁내요	-9.68554
▁생겼네	-9.68592
맛	-9.68617
▁생각에	-9.68643
▁사랑해서	-9.68654
▁가족이	-9.68678
▁찾는	-9.68705
▁좋았	-9.68736
나게	-9.68915
▁고백하	-9.68947
▁생각하면	-9.69029
▁인정하	-9.69103
▁나눠	-9.6919
▁심한	-9.69282
▁어머	-9.69303
▁받은	-9.69433
▁무시	-9.69444
▁놀러	-9.69461
▁거야	-9.69518
을텐데	-9.69675
▁입을	-9.69738
▁괜찮아지	-9.69836
▁크리스마스	-9.69952
▁복잡한	-9.70227
▁있었	-9.70406
데요	-9.70422
▁노력해	-9.70432
▁즐기	-9.70434
▁받아보	-9.70461
▁여자들	-9.70487
래요	-9.70562
작	-9.70606
▁짓	-9.70671
▁미워	-9.70698
로부터	-9.70717
▁태도	-9.70724
더	-9.70776
먹고	-9.7091
르고	-9.70914
▁포기	-9.71028
▁바꿔	-9.7108
▁흔들리	-9.71082
▁타이밍	-9.71196
▁안되	-9.71263
▁실	-9.7133
되겠	-9.71449
▁아니죠	-9.71469
▁참는	-9.71473
▁사정	-9.71489
▁행복해지	-9.7158
됐어	-9.71629
잡고	-9.71778
봐도	-9.72137
▁피곤해	-9.72179
▁다가	-9.7228
▁드려	-9.72608
혀	-9.72686
▁성장	-9.72775
드려요	-9.72824
▁외로워	-9.72867
▁보여주	-9.72881
▁않네	-9.72893
가는	-9.72996
▁연	-9.73018
▁가사	-9.73022
▁착	-9.73048
▁회사에	-9.73094
▁나아졌	-9.73137
교통	-9.73178
▁벚꽃	-9.73213
▁페북	-9.73213
▁흥미	-9.73213
▁외모	-9.73214
▁스키	-9.73214
▁축구	-9.73216
▁딸기	-9.73218
▁느려	-9.73218
▁어필해	-9.73234
▁앞머리	-9.73237
▁대학	-9.73238
▁듣	-9.73238
▁차라리	-9.73238
▁흘려	-9.73242
▁고쳐쓰는	-9.73243
▁실내	-9.73245
▁미친	-9.73247
▁언제쯤	-9.73252
▁귀여워	-9.73254
▁이미	-9.73255
▁깨닫	-9.73272
▁축하합니다	-9.73276
▁보일러	-9.73277
▁한달이	-9.73278
▁비난	-9.73284
▁걱정돼	-9.73288
▁잘해줘	-9.73318
▁정리될	-9.73319
▁우연	-9.73327
▁잡으세요	-9.73346
▁어떡하지	-9.73361
반	-9.73368
▁가능합니다	-9.73383
▁따뜻하	-9.73396
▁끝난	-9.73412
▁기울여	-9.73502
▁센스	-9.73532
▁실망	-9.73546
▁전공	-9.73557
▁프로포즈	-9.73571
▁막말	-9.73589
▁나눠보	-9.73591
▁흐르고	-9.736
▁꿨어	-9.73602
▁호의	-9.73613
▁좋으시	-9.73687
▁친한	-9.73733
▁준비하는	-9.73746
▁봄이	-9.73805
하니	-9.7386
▁많은데	-9.73876
▁거기까지였	-9.73878
▁언제든	-9.73941
▁경	-9.74019
▁알아가	-9.74066
▁결정할	-9.74075
▁됨	-9.74151
▁생각날	-9.74183
▁했습니다	-9.74246
▁휴	-9.74274
▁동거	-9.74297
▁과	-9.74351
▁중요한데	-9.74357
▁다양하	-9.74487
▁지울	-9.74488
▁아니지만	-9.74524
▁진급	-9.74544
▁라면	-9.74559
▁포	-9.74571
▁치료	-9.74573
▁절	-9.74573
▁사과하	-9.74588
▁꿀	-9.74656
▁지금보다	-9.74694
▁야근	-9.74709
드려	-9.74778
부	-9.74781
▁바다	-9.74781
▁당연하	-9.74908
▁짧은	-9.74922
▁생	-9.74973
▁부자	-9.75016
▁그대	-9.75132
▁표현하는	-9.75194
▁속도	-9.75332
▁이해하	-9.75622
잠을	-9.75651
▁잊기	-9.75705
되면	-9.75735
준	-9.75783
▁신청	-9.75915
▁왔는데	-9.75959
위	-9.75997
▁하는건	-9.76012
▁보고싶다	-9.76051
조	-9.76097
새	-9.76111
▁혼자서	-9.76198
두고	-9.76293
김	-9.7634
▁될거예요	-9.76347
▁모르겠	-9.76373
▁결혼식	-9.76389
▁못했	-9.76396
이길	-9.76459
▁이어나가는	-9.76623
▁사람인가	-9.76754
▁그럴만	-9.76842
▁선생님이	-9.76936
▁입어	-9.76992
결	-9.77019
▁사랑하	-9.77095
▁돌아오	-9.77176
겠	-9.77263
▁씻	-9.77474
▁깔끔	-9.77579
▁방학	-9.77804
바	-9.77823
리가	-9.77999
▁지치	-9.78357
했나	-9.7837
▁결혼할	-9.78403
이별한	-9.78492
▁원망	-9.78581
시면	-9.78627
▁걸음	-9.7865
▁취해	-9.7875
인듯	-9.79135
▁다가가는	-9.79168
▁받아들	-9.79249
▁이유는	-9.79316
▁두근거리겠	-9.79367
▁사람만	-9.79575
▁당신만	-9.79693
년이	-9.79704
▁아프지	-9.79713
▁재미있어	-9.79797
▁절약	-9.798
▁맞아	-9.80138
▁어장	-9.8016
??	-9.80161
전에	-9.80162
▁몰	-9.80164
▁수다	-9.80266
▁가만	-9.80306
▁맘이	-9.8048
▁용	-9.80483
▁썸인	-9.80486
하려고	-9.80513
▁결심	-9.80525
▁여기까지	-9.80657
▁역시	-9.80665
릿	-9.80839
닉	-9.80842
▁땀	-9.80842
▁띄	-9.80842
▁생긴다	-9.80847
▁염색	-9.80899
▁맥주	-9.80899
▁즐겁	-9.809
▁매너	-9.80906
▁노후	-9.80907
▁있었나요	-9.80915
▁사회생활	-9.80928
▁영화관	-9.80935
▁샀어	-9.80944
▁하루하루	-9.80944
▁맞추	-9.80947
▁아빠	-9.8095
▁맛집	-9.80953
▁헤어질	-9.8096
▁데려가	-9.80963
▁떨어져	-9.80991
▁헤어졌는데	-9.80992
▁제발	-9.81008
▁부드	-9.81019
▁길러	-9.81049
▁별거	-9.81051
▁떨어졌어	-9.81068
▁과거	-9.81103
▁포장	-9.81111
▁시선	-9.81182
▁잊혀질	-9.81188
▁움직이	-9.81235
▁있었으면	-9.81279
▁고쳐	-9.81302
▁덜할	-9.81302
▁함	-9.8134
▁놓치	-9.81396
▁먹을까	-9.814
▁공허함이	-9.81477
시다	-9.8152
▁쓸	-9.81596
▁아침이	-9.81671
▁됐으면	-9.81672
▁생긴	-9.81721
▁일에	-9.81778
▁흔적	-9.81814
시나	-9.81833
▁잊는다는	-9.81903
▁기억이	-9.81946
▁군	-9.8201
▁보내주	-9.8209
한데	-9.82123
▁시키	-9.82142
거리	-9.82237
▁잘못인	-9.82284
▁결정이었	-9.82326
나면	-9.82335
▁어린	-9.82431
하겠습니다	-9.82477
▁있을지	-9.82493
▁있네	-9.82524
이었으면	-9.82624
▁이혼	-9.82871
▁바라는	-9.82901
▁삭제	-9.82908
▁잡아	-9.82926
본	-9.82993
레	-9.83049
▁왔다	-9.83062
▁쓰지	-9.83083
▁쓰이	-9.831
짓	-9.83116
▁돌려보	-9.83297
▁짧지	-9.83505
▁고치	-9.83537
끼	-9.8363
렸어	-9.8367
학	-9.83705
하지만	-9.83752
한다	-9.83773
▁힘들어서	-9.838
▁결	-9.83912
▁술이	-9.84025
▁건가	-9.84109
하겠네	-9.84182
형	-9.8422
▁당황했	-9.84247
▁위기	-9.84299
둘	-9.84317
▁피곤	-9.84377
▁상태	-9.8467
▁이용	-9.84676
죄	-9.84678
▁빌어	-9.84715
그	-9.84845
▁웃으면	-9.84885
▁축하해주	-9.85028
▁만나보	-9.8506
▁헤어지면	-9.85101
▁끊	-9.85148
우면	-9.85149
▁아는데	-9.85316
▁정의	-9.8532
▁읽	-9.85449
▁답이	-9.85459
▁말하지	-9.85634
▁않을까	-9.86075
▁마음인	-9.8615
▁힘드신가	-9.86588
▁부탁해	-9.87138
었	-9.87394
▁좋을거	-9.87513
▁끝일	-9.87529
일까요	-9.87605
▁부러워	-9.87664
▁못하면	-9.87684
▁때문이	-9.87687
▁차분하	-9.87709
침이	-9.87712
인가봅니다	-9.87844
▁동물	-9.8786
▁힘드시겠	-9.87928
시간	-9.87932
양해	-9.88055
▁스	-9.88204
▁평	-9.88212
▁흘러	-9.88228
▁살면	-9.88436
▁춥	-9.88519
▁미련없	-9.88634
▁좋을까요	-9.8879
▁때로	-9.88826
찰	-9.88828
▁약이	-9.88851
▁큰일	-9.88937
▁재밌는	-9.88972
건지	-9.88995
량	-9.89102
▁떠오르	-9.89109
▁갚	-9.89137
▁A	-9.89175
▁걔	-9.89175
▁득템	-9.89175
▁쉴	-9.89175
▁신뢰	-9.89175
▁애틋	-9.89175
▁오랫	-9.89175
링	-9.89175
쩍	-9.89175
▁가늠	-9.89175
▁형편	-9.89175
▁강렬	-9.89176
▁메모	-9.89176
▁잇몸	-9.89176
▁축복	-9.89179
▁애교	-9.89181
칼로리	-9.89186
▁분담	-9.89188
▁소유	-9.89189
▁나누	-9.89201
▁노려	-9.89211
▁여우	-9.89218
▁동감	-9.89229
▁아까워	-9.89243
▁아름답	-9.89243
▁잠재력	-9.89243
▁새출발	-9.89244
▁두려움	-9.89245
▁책임	-9.89253
▁후유증이	-9.89254
▁의미부여	-9.89254
▁제자리	-9.89254
▁애정표현	-9.89254
맥이	-9.8928
▁인공	-9.89296
▁정신차리	-9.89313
▁욕심	-9.89369
▁아름다워	-9.894
▁보답	-9.89409
▁외로움	-9.89425
▁주식	-9.89442
▁싶습니다	-9.89462
▁로봇	-9.89464
▁지나간	-9.89483
▁드네	-9.89519
▁안됐는데	-9.89589
▁괜찮다면	-9.89595
▁sns	-9.8962
▁충격	-9.89625
▁성공적	-9.89631
▁나왔어	-9.89637
짐에	-9.89654
▁보니	-9.89695
▁가치	-9.89711
▁예감	-9.89727
가세요	-9.89729
▁다리	-9.89745
▁헤어지자고	-9.89745
▁좋아해주는	-9.89747
▁웃어보세요	-9.89824
▁성공할	-9.89827
▁지진	-9.89836
▁주말에	-9.89885
▁허리	-9.89918
▁땅	-9.89935
▁고맙다	-9.89938
▁응원해요	-9.8995
▁어려	-9.89964
▁찌	-9.90014
▁차례	-9.90018
▁싶다고	-9.90067
▁배우자	-9.9016
질러	-9.90173
▁마시면	-9.90298
▁마음이라	-9.90355
리지	-9.90356
▁버려	-9.904
▁심리	-9.90475
됐는데	-9.90663
▁당신에게	-9.908
▁크기	-9.90884
▁순간이었	-9.90903
▁타다	-9.90956
▁애들	-9.90958
▁삭제하는	-9.91007
▁했	-9.91008
▁않는데	-9.91101
▁고장	-9.91155
▁소문	-9.91186
▁해드	-9.91252
▁맛있어요	-9.91261
▁인정받	-9.91338
▁산	-9.91386
▁찍어	-9.91414
줄게	-9.91417
▁중입니다	-9.9142
분이	-9.91424
▁않겠	-9.91502
으	-9.91513
▁야경	-9.91551
▁해야지	-9.91582
▁표현해보	-9.91626
▁기간이	-9.9166
▁집중하	-9.91733
이네	-9.91756
▁지나	-9.91772
▁시간이겠	-9.91849
▁아파하	-9.91962
재	-9.92054
터	-9.92099
▁들었어	-9.921
▁변하는	-9.92293
방법	-9.92314
▁푸	-9.92347
줬어	-9.92423
▁그러는	-9.92514
▁일하는	-9.92638
체	-9.92677
▁됐	-9.92691
문	-9.9271
탈	-9.92725
몸	-9.9302
▁잘못이	-9.93032
이니	-9.93249
사람	-9.9333
▁출근	-9.93417
추	-9.93464
양	-9.93506
▁변명	-9.93579
산	-9.93672
극	-9.93865
느냐	-9.93949
▁있음	-9.93955
▁칭찬해주	-9.93991
▁읽어보	-9.94124
▁단계	-9.94131
구나	-9.94236
야할	-9.94261
▁하고싶	-9.94298
드리	-9.94319
▁여행이	-9.94399
▁이용해	-9.94523
▁얼굴이	-9.94593
▁혼	-9.94719
▁일주일	-9.94732
들에게	-9.94836
▁삼	-9.9491
▁꺼	-9.95021
▁헤어져야	-9.95106
뿐	-9.95128
▁헤어	-9.95142
▁늦은	-9.95309
▁놓아	-9.95548
▁들리	-9.95717
▁야경이	-9.9573
▁멋	-9.95827
▁일부	-9.95911
▁됐네	-9.96
▁적어보	-9.96009
▁보여요	-9.9603
▁썼	-9.96042
▁부담스러워하	-9.96223
▁남편	-9.96272
▁반지	-9.96476
▁드릴	-9.96509
▁아닐까	-9.96868
취	-9.96893
▁놀랐	-9.96918
▁사귄	-9.97272
친	-9.973
싶어	-9.97342
달째	-9.97427
네여	-9.97574
▁진심이	-9.97716
▁살다	-9.98002
▁사람일	-9.98053
▁안부	-9.98063
▁운명이	-9.981
▁딴	-9.98259
염	-9.98266
토	-9.98266
흥	-9.98266
▁합격	-9.98266
▁부딪혔	-9.98266
▁자괴감	-9.98266
▁자존심	-9.98266
▁청첩장	-9.98266
▁출퇴근	-9.98266
꽤	-9.98266
▁에휴	-9.98269
▁업무	-9.9827
▁명절	-9.98272
▁마주쳐	-9.98273
▁실례	-9.98273
▁괴로워	-9.98273
▁증오	-9.98273
▁멀리	-9.98277
▁모자라	-9.98307
▁소개시켜	-9.9834
▁취미생활	-9.98345
더라구	-9.98345
▁낭비	-9.98347
▁바디	-9.98348
▁이별통보	-9.98348
▁익숙해질	-9.98349
▁어찌	-9.98364
▁걱정된다	-9.98371
▁장점	-9.98376
▁생겨	-9.98379
▁집들이	-9.98402
▁금연	-9.98459
▁일어났	-9.98472
▁끝날	-9.98492
법	-9.985
▁잠수	-9.98572
▁세워	-9.98594
▁새해	-9.9867
워질	-9.98706
▁아프다	-9.98748
▁그녀에게	-9.98781
▁살아가	-9.98792
▁영원한	-9.98798
▁두번	-9.98814
▁일들이	-9.98834
▁안녕하세요	-9.98845
▁익숙해지지	-9.98846
▁운동하	-9.98856
▁듣기	-9.98864
▁속상해	-9.98882
▁여름	-9.99028
▁행복해질	-9.9906
▁환승이별	-9.99067
▁궁금할	-9.99069
▁사람들에	-9.99077
▁넌	-9.99088
▁방식	-9.99119
▁편해	-9.9914
▁아플	-9.99165
▁풀렸	-9.99191
▁기울이	-9.99289
▁정답	-9.99411
▁높겠	-9.99451
▁이해할	-9.99468
▁잘못된	-9.99528
뿐이	-9.99528
▁싫어하는	-9.99594
지고	-9.99643
▁호	-9.99711
려주세요	-9.99739
세	-9.99778
▁그때	-9.9981
▁벽	-9.99838
▁클	-9.99911
▁짠	-9.99969
▁밀어	-10
▁아니야	-10
▁말까	-10.0001
혼자	-10.0004
▁의외	-10.0013
▁나가기	-10.0014
▁많아서	-10.0031
▁분들	-10.0052
남	-10.0053
으니	-10.0059
▁자신과	-10.006
▁친	-10.007
▁서운하	-10.0083
치고	-10.0091
▁불편	-10.0092
▁그사람	-10.0092
능	-10.0109
또	-10.0113
▁계기	-10.0114
▁없지만	-10.0118
▁보이는	-10.012
▁성	-10.0122
▁별로라	-10.0135
있어요	-10.0136
▁헤어지는	-10.014
▁웃어	-10.0144
짐	-10.0147
▁즐기면	-10.0149
▁전화가	-10.0151
였	-10.0152
▁가족들	-10.0156
▁복잡	-10.0171
▁설	-10.0183
매일	-10.0194
▁싱숭생숭	-10.0224
꾸	-10.0237
▁갔다	-10.0261
2	-10.0267
▁기술이	-10.0271
▁이상형이	-10.028
▁슬프	-10.028
▁고르	-10.0282
듯이	-10.0287
▁하네	-10.029
숙	-10.0298
ᄏ	-10.0311
▁사랑하는지	-10.0312
합	-10.0313
▁보고싶	-10.0314
▁맘에	-10.0328
▁노력해보	-10.033
▁나지	-10.033
콜	-10.0335
려도	-10.0336
▁물어보고	-10.0355
▁해보	-10.0356
▁미안해	-10.0357
▁남았나봐	-10.0365
▁거기까지	-10.0366
역	-10.0366
▁삭제하	-10.0371
깨	-10.0373
왕	-10.0373
▁애정	-10.0375
잖아	-10.0383
▁후회해	-10.0394
▁올라	-10.0395
셨나	-10.0405
▁취향	-10.0416
▁경험	-10.0423
였어	-10.0457
▁힘드	-10.0458
▁ᅲ	-10.0459
▁사야	-10.0463
▁하려고	-10.0476
▁기원	-10.0494
▁정확하	-10.0524
▁참지	-10.0524
하려는	-10.0527
인가요	-10.0529
▁찾아오	-10.0541
웠	-10.0541
는구나	-10.0544
▁들어와	-10.0544
▁있으신가	-10.0571
▁이뤄	-10.058
선이	-10.0586
▁안에	-10.0591
▁노	-10.0592
▁때문일	-10.0597
▁속에	-10.0597
줄까	-10.0599
▁헤아	-10.0604
독	-10.0621
▁나왔	-10.0625
리면	-10.0638
▁클럽	-10.0638
었으면	-10.064
셨네요	-10.0643
름	-10.0647
▁가치관	-10.0655
▁좋아하지	-10.0675
▁정신없	-10.0676
치기	-10.0683
▁비슷	-10.0722
▁사고	-10.0734
타기	-10.0759
아서	-10.076
▁정리해	-10.0763
▁함께할	-10.0766
▁맘같	-10.0766
▁젖	-10.0769
버리	-10.0785
해졌	-10.0793
년간	-10.0796
▁오랜	-10.08
▁필	-10.0817
님	-10.0817
▁그런가	-10.082
▁사라질	-10.0822
벅	-10.0827
릅	-10.0827
▁택배	-10.0827
▁가볍	-10.0827
▁공무원	-10.0827
▁당분간	-10.0827
▁마침표	-10.0827
▁앉	-10.0827
▁유효기간	-10.0827
▁트라우마	-10.0827
▁휴대폰	-10.0827
바퀴	-10.0827
츠	-10.0827
툰	-10.0827
▁슬픔	-10.0827
▁짜장면	-10.0827
▁베풀	-10.0827
▁비하하지	-10.0827
센터	-10.0827
▁배고파	-10.0827
▁치유	-10.0827
▁단호	-10.0827
강습	-10.0828
▁의욕	-10.0828
▁짜증날	-10.0828
▁못하	-10.0828
▁커피향	-10.0829
▁크시겠	-10.083
▁원인이	-10.083
▁달라져	-10.0831
▁천재	-10.0831
▁갚아	-10.0831
▁맞는걸까	-10.0833
▁추운	-10.0833
▁언니	-10.0833
지긋	-10.0833
▁아이스크림	-10.0833
▁결혼적령기	-10.0833
▁프라이버시	-10.0833
▁싸워	-10.0834
▁일어날	-10.0834
▁고백했는데	-10.0837
▁어려울	-10.0838
였을	-10.084
▁줄어들	-10.0841
▁깨달음	-10.0846
드립니다	-10.0854
▁두셨네요	-10.0855
▁우연히	-10.0865
▁받아들이	-10.0867
▁낳	-10.0868
▁9	-10.0868
▁빠져	-10.0876
▁아껴	-10.0876
▁베터리	-10.0877
▁뒤에서	-10.088
▁필요했을	-10.0883
▁이불	-10.0884
▁쓸데없	-10.0886
고싶어	-10.0895
▁만나기로	-10.0895
▁챙기	-10.0899
▁많은가	-10.09
▁가능하면	-10.0902
▁매력이	-10.0903
▁불안해	-10.0909
▁있어야	-10.091
친구가	-10.0913
▁답답해	-10.0917
▁사랑받고	-10.092
▁착한	-10.0925
▁먼지	-10.0929
▁안되나	-10.0929
위치	-10.0934
▁아닌가요	-10.0934
▁왔으면	-10.0937
하러	-10.0941
▁보낼	-10.0947
▁노래방	-10.095
▁나온	-10.095
▁마음만	-10.0953
▁마음에서	-10.0955
▁코스	-10.0956
▁고기	-10.096
▁흘러가	-10.0977
▁받기	-10.0977
▁나한테만	-10.098
▁나갈	-10.098
▁덜어	-10.0986
▁망가	-10.099
▁빠졌	-10.0992
▁팔	-10.1008
▁알려	-10.1013
▁봐서	-10.1014
▁견뎌내	-10.1022
▁자격증	-10.103
▁가치관이	-10.1041
▁무덤덤해지	-10.1041
▁끝났	-10.1047
▁하루에	-10.1049
▁그걸	-10.1051
▁달려있	-10.1052
▁편하고	-10.1054
▁부탁	-10.1058
▁솔직	-10.1063
▁많았나	-10.1063
▁다르지	-10.1064
▁이기적인	-10.1064
▁같다	-10.1069
▁사랑하나	-10.1076
드세요	-10.108
▁너에게	-10.1083
▁끝났어	-10.1086
▁했을	-10.1087
우니까	-10.1099
▁외	-10.1104
▁빌	-10.1115
▁하지마	-10.1115
▁남자랑	-10.1116
▁모르게	-10.1117
▁들으면	-10.1125
▁더워	-10.1129
▁남사친이	-10.113
▁달리	-10.1137
▁이루어	-10.1137
▁조건	-10.1142
▁맛있을	-10.1153
▁나을까	-10.1155
▁해주면	-10.1175
▁상의	-10.118
랑이	-10.1189
▁투자	-10.1195
▁높아	-10.1218
▁회식	-10.1219
해봐요	-10.1226
연	-10.1234
오면	-10.1238
려나	-10.1248
▁점이	-10.1248
▁연락해보는	-10.1252
따라	-10.1269
▁이해가	-10.1275
졌으면	-10.1276
력	-10.1284
▁챙	-10.1287
▁나보다	-10.1297
▁간사하	-10.1298
▁잘해야	-10.1299
▁연락할	-10.1308
▁왔나	-10.1309
▁복잡한가	-10.1315
▁이직	-10.1319
셨	-10.1321
▁처음이	-10.1335
폰	-10.1335
▁합	-10.1337
보며	-10.1339
▁공부하면	-10.1339
음이	-10.1347
▁하셨나	-10.1348
▁친해지는	-10.1357
어보고	-10.1359
개	-10.1371
▁말해보는	-10.1373
해져	-10.1379
▁맞춰가	-10.1389
밥	-10.1396
▁아닌가봐	-10.1405
▁낭만적	-10.1408
코	-10.1421
▁견디고	-10.1426
▁소식	-10.144
▁사람인	-10.1447
있음	-10.145
▁악몽	-10.1457
▁기억에	-10.1459
설	-10.1459
▁확실하	-10.146
버려	-10.148
▁그분에	-10.1482
▁손해	-10.1487
였나봐	-10.1492
▁반응	-10.1495
▁착각	-10.1496
허	-10.1497
하긴	-10.1497
▁끝인	-10.1501
▁연습해	-10.1507
▁이루	-10.1522
▁하던	-10.1525
친구와	-10.1525
▁왔나봐	-10.1549
▁누	-10.155
봤	-10.1555
▁하시	-10.156
▁한다는	-10.1563
▁가려	-10.1577
▁샤워	-10.159
머	-10.1592
▁오늘이	-10.1617
▁용서	-10.1633
관	-10.1635
▁나아지	-10.1641
▁급	-10.1654
▁스타일이	-10.166
했네	-10.1662
▁음	-10.1662
▁고백해	-10.1664
▁울	-10.167
때도	-10.167
하나	-10.1673
값	-10.1676
척	-10.1681
▁결정이	-10.1682
받고	-10.1685
했네요	-10.1712
▁접어두	-10.1719
▁최악	-10.1731
나가는	-10.1731
▁귀찮	-10.1736
정리를	-10.1741
거같아	-10.1743
▁어렵네	-10.1755
▁어떨까	-10.1765
▁이뻐	-10.1775
내고	-10.1777
녀	-10.1784
▁냄새	-10.1786
▁검색	-10.1793
▁기간	-10.1801
오	-10.1806
▁읽어	-10.1807
▁같아서	-10.1815
▁화가	-10.1848
▁전화하는	-10.1861
▁기다려보	-10.1866
▁보일	-10.1872
남자	-10.1875
▁위험	-10.1882
▁선택할	-10.1886
랬	-10.1908
▁보냈	-10.1914
▁의지해	-10.1931
제가	-10.1931
신이	-10.1934
▁파혼	-10.1934
▁부담스러운	-10.1935
▁있다	-10.1935
즈	-10.1938
▁빼빼로	-10.1938
▁설렜	-10.1938
▁노트북	-10.1938
▁봉사활동	-10.1938
▁염탐하	-10.1938
▁좋으련만	-10.1938
▁지저분해	-10.1938
▁한켠	-10.1938
▁헛	-10.1938
욱	-10.1938
▁갑작스럽	-10.1938
▁신혼여행	-10.1938
▁평온	-10.1938
▁버티	-10.1938
▁연락두절	-10.1938
▁감싸	-10.1938
▁무의식	-10.1939
▁그리울	-10.1939
▁무너져	-10.1939
▁무관심	-10.1939
▁통화	-10.1939
▁방문	-10.1939
▁등산	-10.1939
▁느껴져	-10.194
▁배울	-10.1941
▁대출	-10.1941
▁드라이브	-10.1941
▁사업	-10.1942
▁어리게	-10.1943
▁변덕스럽	-10.1943
▁귀여	-10.1943
▁빠른	-10.1943
▁허전한	-10.1944
▁고마운	-10.1944
▁지갑	-10.1945
▁기준	-10.1945
▁믿으세요	-10.1946
▁사생활	-10.1947
▁맨	-10.1947
▁한국	-10.195
▁정신적	-10.1951
▁되었습니다	-10.1952
▁끝낼	-10.1952
활용	-10.1954
▁지낼	-10.1958
▁다정한	-10.1958
▁버리는	-10.196
▁전역	-10.196
▁포근	-10.1964
▁마음정리	-10.1965
▁아마	-10.1967
▁미워하지	-10.1969
▁좋아했는데	-10.1972
▁가자	-10.1973
▁걱정되	-10.1974
▁없으니까	-10.1978
▁이러지	-10.1979
▁말해볼까	-10.1981
▁좋고	-10.1985
▁먹으	-10.1987
▁사랑해요	-10.1992
▁힘듭니다	-10.1995
▁많은걸	-10.1995
▁시작하기	-10.1996
▁가야겠죠	-10.1998
▁바늘	-10.1999
▁좋대	-10.1999
▁멀었	-10.2
▁헤어졌네	-10.2004
막혀	-10.2004
▁사귀면	-10.2005
▁성장하	-10.2014
▁흘리	-10.2015
▁있을까요	-10.2016
▁참견	-10.2023
명	-10.2027
▁썸일	-10.2031
▁많아지	-10.2036
▁편하겠죠	-10.2039
야돼	-10.2042
▁오네	-10.2045
▁좋아한다	-10.2047
▁구멍이	-10.205
▁당당	-10.2051
▁그저	-10.2053
▁도와줘	-10.2053
▁하루에도	-10.2055
▁정확	-10.2056
▁결혼하면	-10.2058
▁이쁜	-10.2063
▁활	-10.2068
▁여자친구에게	-10.2075
▁오려나	-10.2076
각이	-10.2078
▁때문	-10.2082
▁변한	-10.2084
▁떨어지	-10.2101
▁포기하는	-10.2106
못했던	-10.2106
▁옷이	-10.2108
▁바르	-10.211
▁느껴	-10.2115
▁아픔이	-10.2115
▁먹었어	-10.212
▁고백해도	-10.2125
▁하니까	-10.2132
▁재미없	-10.214
▁쓰면	-10.2156
▁걸려	-10.2157
▁패턴	-10.2157
▁소모	-10.2158
▁선배	-10.2161
▁좋을지	-10.2183
▁놓으	-10.2201
▁해야할까	-10.2205
▁싸움	-10.2209
▁흐르는	-10.2215
▁헛헛	-10.2217
▁당연한	-10.2218
보여요	-10.222
▁안좋은	-10.2223
하는거	-10.2231
가봅니다	-10.2236
▁가능할까	-10.2236
하는건	-10.2245
정이	-10.2253
들고	-10.2258
▁차가워	-10.2264
▁늘	-10.2279
▁들어올	-10.2282
▁모를	-10.2287
▁했어요	-10.2288
▁나가야	-10.231
▁용서하	-10.2321
▁나타나	-10.2321
▁응원	-10.2326
복	-10.2327
▁만들었어	-10.2328
▁아니고	-10.2329
▁이어주	-10.2331
▁불편하겠	-10.2335
▁교회	-10.2346
▁노는	-10.2346
▁아니라는	-10.235
▁간단하	-10.2354
▁피곤하	-10.2356
▁가능하다	-10.2358
▁가까	-10.2381
▁왔네	-10.2382
기적	-10.2388
▁나나	-10.2402
하며	-10.2403
▁없는거	-10.2404
▁건가요	-10.2407
▁알았어	-10.2419
▁아니었나	-10.2423
국	-10.2425
▁여사친이	-10.2431
줬으면	-10.2442
▁헤어지자	-10.2443
▁버	-10.246
▁내기	-10.2461
도시	-10.2469
▁가는데	-10.2482
▁들으	-10.2482
▁이름	-10.2483
▁따듯	-10.249
같이	-10.2502
오래	-10.2511
형이	-10.2514
곳	-10.2533
▁이기적이	-10.2536
▁우울해	-10.2536
▁변해	-10.2548
라니	-10.255
운을	-10.2551
기세요	-10.2553
▁초대	-10.2557
되어	-10.2558
▁생각하기	-10.2572
불	-10.259
씨	-10.2601
학기	-10.2603
▁의심	-10.2611
푸	-10.262
▁마셔야	-10.2621
▁잠수이별	-10.2628
▁장소	-10.263
▁죽고	-10.2635
어머	-10.2637
▁세상이	-10.2638
되길	-10.2639
▁미치	-10.264
▁늦는	-10.2642
▁위험하	-10.2645
놈	-10.2647
번호를	-10.265
찬	-10.2657
버는	-10.2659
번호	-10.266
채	-10.2662
▁준비해	-10.2662
출	-10.2662
티	-10.2664
조심하세요	-10.2669
년의	-10.267
고싶은데	-10.2671
건강에	-10.2677
받으세요	-10.2685
쪄	-10.2688
▁깊었	-10.2689
처리	-10.2696
목	-10.2703
할게	-10.2706
S	-10.2706
▁대화하는	-10.2708
뒀	-10.271
'	-10.2715
지기	-10.2716
▁느껴보	-10.2717
▁먹은	-10.2719
옴	-10.2719
▁길어	-10.2724
봤는데	-10.2725
▁않지	-10.2728
궁	-10.273
판	-10.2735
▁썸타	-10.2736
▁적이	-10.2743
뜨	-10.2744
▁먹었	-10.2747
높이	-10.2757
▁필요한가봐	-10.2766
특	-10.2767
두세	-10.2771
나는	-10.2781
▁애매	-10.2787
▁가리	-10.2793
▁통	-10.2794
▁존중해	-10.2805
렸나봐	-10.282
▁흐르	-10.2827
▁된다	-10.2827
주고	-10.2841
▁받아들여야	-10.2847
▁반복	-10.2848
▁말로	-10.2853
▁운명인가	-10.2855
▁ᅲᅲ	-10.2862
▁잘해	-10.2873
▁동생	-10.2876
▁걸까요	-10.2898
▁적응해야	-10.2909
물	-10.2921
개월이	-10.2929
▁않았을	-10.2942
▁다가왔	-10.297
▁결혼하	-10.2991
▁차가	-10.3001
이라니	-10.3005
이별	-10.3018
▁없을까	-10.3018
▁흔	-10.3035
▁학기	-10.3063
력이	-10.3064
왔는데	-10.3073
▁어쩌	-10.3092
았어	-10.3095
▁이성	-10.3102
이예요	-10.311
부를	-10.3115
▁한다	-10.3118
만한	-10.3119
▁쓸데	-10.3122
나서	-10.3125
▁아껴주	-10.3128
▁똑같	-10.3146
▁까먹	-10.3148
▁낮	-10.3154
▁옆	-10.3159
▁나온다	-10.3161
시간이	-10.3162
▁두근거	-10.3164
진다	-10.3166
▁진행	-10.3167
▁확실해	-10.3171
▁퇴근	-10.3175
▁성적	-10.3175
쯤	-10.3177
례	-10.3178
▁변덕	-10.3181
압	-10.3181
텐	-10.3182
▁쪼	-10.3185
▁녹	-10.3185
▁슈퍼	-10.3187
쭤	-10.3188
▁굳	-10.3188
▁몫	-10.3188
▁찜질방	-10.3188
▁흑역사	-10.3188
힐	-10.3188
a	-10.3188
s	-10.3188
▁각질제거	-10.3188
▁글쎄요	-10.3188
▁꼰대	-10.3188
▁꼼	-10.3188
▁놀이동산	-10.3188
▁동호회	-10.3188
▁뒷감당	-10.3188
▁무릎	-10.3188
▁비싼	-10.3188
▁삼겹살	-10.3188
▁섬유유연제	-10.3188
▁아팠	-10.3188
▁어둠	-10.3188
▁원동력이	-10.3188
▁현금영수증	-10.3188
놨	-10.3188
맷	-10.3188
뻑	-10.3188
왤	-10.3188
▁관련	-10.3188
▁사춘기	-10.3188
짚	-10.3188
▁월요일	-10.3188
▁첫인상	-10.3188
▁증명	-10.3188
▁상종하지	-10.3188
▁인턴	-10.3188
째깍	-10.3188
▁피부관리	-10.3188
▁똥차	-10.3188
▁인지시켜	-10.3188
▁와닿	-10.3188
▁안경테	-10.3188
▁잡념	-10.3188
▁최근	-10.3188
▁작동	-10.3189
▁분노	-10.3189
▁신경써	-10.3189
▁참석하는	-10.3189
▁음료	-10.3189
▁리드	-10.3189
▁청결	-10.3189
▁시도해	-10.3189
▁외부	-10.3189
▁장갑	-10.319
▁표정	-10.319
▁나이테	-10.319
▁녹여	-10.319
▁바쁠	-10.3191
▁허전할	-10.3191
▁속박	-10.3191
▁아쉬운	-10.3191
▁변화시켜	-10.3192
▁반갑	-10.3192
▁선택이었을	-10.3193
▁실행	-10.3193
▁정해져	-10.3193
▁까먹었다	-10.3193
▁우린	-10.3194
▁따져	-10.3194
▁지압	-10.3194
▁부부	-10.3194
▁사탕	-10.3194
▁감동	-10.3195
▁조용	-10.3195
▁변신	-10.3196
▁불편해	-10.3199
▁진리	-10.3199
▁고마	-10.32
▁대우	-10.32
▁무시하는	-10.32
▁치워	-10.3201
▁어떠세요	-10.3203
▁질질	-10.3204
▁성덕이	-10.3204
▁익숙해져	-10.3205
차곡	-10.3206
▁좋았는데	-10.3208
▁중국어	-10.3208
▁태연	-10.3209
▁것만	-10.321
▁실천	-10.321
▁기다릴게요	-10.3211
▁중요하니까	-10.3212
▁주제	-10.3212
▁아쉬움이	-10.3212
▁역할	-10.3212
개월째	-10.3213
▁같음	-10.3216
▁다짐	-10.3217
았는데	-10.3217
▁꺼내	-10.3218
▁미화되기	-10.3221
▁상대적	-10.3221
▁안되네	-10.3222
▁낮잠	-10.3222
▁불공평해	-10.3222
▁생겼으면	-10.3223
놓지	-10.3224
추적	-10.3224
초록	-10.3227
▁감성적이	-10.3228
▁느낌이야	-10.3228
종료	-10.3231
▁일시적	-10.3231
▁월급날	-10.3235
▁놀러가세요	-10.3236
▁전세	-10.3237
▁베	-10.3239
▁행복해보여	-10.3243
▁설명	-10.3243
▁예약	-10.3244
▁화내	-10.3247
▁목적	-10.3249
▁잤어	-10.325
▁팔아	-10.325
▁가능한	-10.3252
둬야	-10.3254
▁지나면	-10.3255
▁현금이	-10.3255
▁일요일	-10.3261
▁다녀와	-10.3262
▁태어나	-10.3262
거려	-10.3264
▁뭐할까	-10.3265
▁아닌거	-10.3267
▁무리하지	-10.3268
▁받으시	-10.3269
▁돌아서	-10.327
▁없는걸	-10.3275
▁생각했는데	-10.3278
▁짜	-10.3279
▁똑똑해	-10.328
▁슬프게	-10.3281
▁끝에	-10.3285
주물	-10.329
▁맞을까	-10.3301
▁참았어	-10.3303
▁뭐하냐	-10.3314
▁여자친구한테	-10.3318
▁멀어지	-10.3327
▁그립	-10.3331
▁온다	-10.3332
▁신혼	-10.3333
▁갑작스러	-10.334
▁썸인가	-10.334
아주	-10.3349
들었겠	-10.3354
▁여자와	-10.3356
▁세우	-10.3363
▁거짓말이	-10.3367
▁집착해	-10.3368
할지도	-10.3375
▁옷이요	-10.3381
▁대답	-10.3382
▁식습관	-10.3385
▁표시	-10.3386
▁왔습니다	-10.3388
▁간절하	-10.339
▁그만두	-10.3393
▁피로	-10.3399
▁당했어	-10.3399
해주지	-10.3401
▁티내	-10.3401
▁끄는	-10.3406
▁봤어	-10.3413
▁어색해	-10.3414
▁받았	-10.3415
▁해주고	-10.3416
니가	-10.3419
▁닫	-10.3423
▁해야겠다	-10.3427
▁육아	-10.343
▁예상	-10.3438
▁전기	-10.3438
▁놀러가고	-10.3439
▁축하해	-10.3443
▁쓰일	-10.3446
▁사랑하기	-10.3448
▁해야할지	-10.3448
▁사나	-10.3449
▁돌리	-10.3452
해야겠죠	-10.3467
▁심장	-10.3468
▁현실적	-10.3469
있지	-10.3471
▁인스타	-10.3471
개시	-10.3475
▁품	-10.3476
▁꾸준한	-10.3478
▁널	-10.3489
▁아무말	-10.3504
▁귀찮은	-10.3515
▁자는	-10.3517
▁거의	-10.3521
▁아프게	-10.3531
▁행	-10.354
▁카드	-10.3541
▁애석하	-10.355
▁건데	-10.3553
▁결정하는	-10.3553
올	-10.3562
하셔야죠	-10.3564
▁집착하	-10.3568
▁뒤에	-10.3568
할거야	-10.3575
▁말라고	-10.3575
▁말보다	-10.3585
▁좋아한다는	-10.359
▁확인하는	-10.3594
들었나봐	-10.3597
식하는	-10.3598
무	-10.3601
▁위험해	-10.3602
▁먹어야	-10.3607
▁속은	-10.3614
▁차단하	-10.3617
▁있는거	-10.3623
정기	-10.363
▁싸웠	-10.3631
▁맞지	-10.3633
▁깔끔하	-10.3639
▁되겠지	-10.3643
▁얻	-10.3665
▁맞나	-10.3666
▁건강습관이	-10.3674
▁사귀자	-10.3674
을거예요	-10.3674
▁옴	-10.368
려는	-10.3686
▁아니었	-10.3692
▁남길	-10.3696
이었을	-10.3698
▁밤에	-10.3703
▁상태인	-10.3705
▁울적	-10.3706
▁보이네	-10.3709
▁도와	-10.3723
▁지식	-10.3723
▁파도	-10.3726
발이	-10.3728
▁잡았	-10.3757
▁남아	-10.3759
▁기억해	-10.376
▁받으세요	-10.3766
했지만	-10.3776
식물	-10.3784
▁내일이	-10.3792
셔야	-10.3792
▁예민해	-10.3797
▁질리	-10.38
▁잘하	-10.38
▁문신	-10.3811
해보고	-10.3811
▁인연인	-10.3832
▁서운	-10.3836
▁연애하고	-10.3838
▁아니었을	-10.3839
▁붙잡	-10.3839
아지	-10.3843
▁좋아하는거	-10.3844
▁미안해하	-10.3848
▁헤어졌	-10.3865
▁나눠보는	-10.3886
▁따지	-10.3887
▁다양	-10.3919
없는	-10.3922
▁다치	-10.3925
▁기적	-10.3935
려면	-10.3969
▁설레는	-10.3971
갑	-10.3974
▁김	-10.3976
▁사람이었나	-10.3978
▁너무나	-10.3981
▁많으시	-10.3988
모습	-10.3999
▁봐주	-10.4003
▁제안	-10.4005
시다니	-10.401
▁아기	-10.4013
▁일하	-10.402
▁모아야	-10.4024
▁생각하나	-10.4029
향	-10.4037
▁받아들여	-10.4045
애	-10.4049
갑니다	-10.405
▁떠보	-10.4058
▁꿈같	-10.4073
▁올해	-10.4083
▁깎	-10.4084
해줘	-10.4096
▁중독	-10.4097
둔	-10.4103
4	-10.4109
▁혼자인	-10.4113
▁중고	-10.4118
였나	-10.4125
되지	-10.4149
▁나겠	-10.4154
한번	-10.4156
행	-10.4157
▁입으	-10.4161
▁침대	-10.4167
복이	-10.4177
막히는	-10.4179
▁전남친이	-10.4181
▁바꿀	-10.4193
▁연속	-10.4194
지가	-10.42
▁알았	-10.4204
▁말해줘	-10.4211
았으면	-10.4221
건데	-10.4229
▁잘해주는	-10.4248
▁그리운	-10.4249
▁키워	-10.4251
▁많다	-10.4255
▁알지	-10.4258
▁일인	-10.426
▁받아야	-10.4261
▁헛헛하	-10.4262
렸	-10.4263
▁도	-10.4264
▁생각하게	-10.4281
▁기도	-10.4284
▁지났	-10.4293
밖	-10.4327
▁부담스러워	-10.4338
난다면	-10.4343
▁있었어	-10.4345
▁걸리	-10.4345
▁충전기	-10.4355
▁가보	-10.4387
▁행동이	-10.439
하고싶어	-10.4405
거겠죠	-10.4414
었습니다	-10.4416
▁뻔	-10.4418
▁공부할	-10.4437
▁되어요	-10.4466
▁헤어짐에	-10.4467
망이	-10.4467
▁알아봐	-10.4471
난다	-10.4471
▁잊어야	-10.4476
▁가능해	-10.45
▁뭐하는	-10.4503
▁만나요	-10.4514
지마	-10.4517
워서	-10.4518
주지	-10.4519
▁하다	-10.4522
▁주기	-10.4524
▁지쳤	-10.4531
▁상황에	-10.4542
▁20	-10.455
▁아깝	-10.4557
룩	-10.4563
▁일년	-10.4566
▁태	-10.4578
야할까	-10.4598
▁안정적	-10.4603
▁아물	-10.4605
쟁이	-10.4605
▁어떨	-10.4609
▁결혼에	-10.461
▁안되겠지	-10.4611
▁다닐	-10.4611
▁보게	-10.4613
▁드라이	-10.4613
▁찔	-10.4614
▁택시	-10.4614
념	-10.4614
▁멈	-10.4615
▁겪	-10.4616
▁금수저	-10.4616
▁꾹꾹	-10.4616
▁뒷	-10.4616
▁뚫	-10.4616
▁모쏠	-10.4616
▁빚	-10.4616
▁설득	-10.4616
▁셀카	-10.4616
▁이벤트	-10.4616
▁팀	-10.4616
▁팍팍	-10.4616
댈	-10.4616
▁셀프	-10.4616
▁쌩얼	-10.4616
▁여드름	-10.4616
▁확률	-10.4616
▁배터리	-10.4616
▁침묵	-10.4616
▁호칭	-10.4616
▁서툴러	-10.4616
▁뛰어넘	-10.4616
▁도대체	-10.4616
▁단둘이	-10.4616
▁격려	-10.4616
▁패션	-10.4617
▁추석	-10.4617
▁제주도	-10.4617
▁시골	-10.4617
▁혼술	-10.4617
▁끓여	-10.4617
▁회복	-10.4617
▁의견	-10.4617
▁구속	-10.4617
▁무모	-10.4617
▁개념	-10.4617
▁손편지	-10.4618
▁빈자리	-10.4618
▁유행	-10.4618
▁공유	-10.4618
▁예비	-10.4618
▁발목	-10.4618
▁부담스러울	-10.4619
▁감출	-10.4619
▁어느정도	-10.4619
▁15	-10.462
▁간식	-10.462
▁빨래	-10.4621
줬는데	-10.4622
▁알아볼	-10.4623
▁차갑게	-10.4623
▁답답하네	-10.4624
▁졸업식	-10.4625
▁강제	-10.4627
▁지낸	-10.4627
▁서운해	-10.4627
되는데	-10.463
▁필름	-10.463
▁안됐	-10.463
▁영원	-10.4633
▁습관처럼	-10.4634
플라	-10.4635
▁소주	-10.4635
▁무거워	-10.4635
▁대체	-10.4636
▁착잡하	-10.4637
▁좋더라	-10.4637
▁은행	-10.464
▁두근거려	-10.4641
▁쌓인	-10.4641
▁오셨	-10.4641
▁출발	-10.4641
▁망상	-10.4643
간을	-10.4643
▁배고프	-10.4643
▁표현하기	-10.4644
▁좋았으면	-10.4647
▁잘못입니다	-10.4648
▁실수했나	-10.4652
▁물질	-10.4654
으신가	-10.4656
▁돌아보	-10.4656
▁반가워요	-10.4657
▁풀리	-10.4658
▁가져가	-10.4659
사는	-10.4662
▁건조	-10.4663
▁탁	-10.467
▁그럴까	-10.4672
▁밟	-10.4673
▁마주쳤	-10.4678
▁점심	-10.4679
▁입장	-10.4681
▁정류장	-10.4682
▁들어줄	-10.4683
▁안되는데	-10.4693
▁아파트	-10.4697
▁무엇인	-10.4698
▁어색한	-10.47
▁키울	-10.4709
일차	-10.4729
▁공간	-10.4734
▁교	-10.4737
▁깨달았	-10.4743
▁찼	-10.4744
가지	-10.4751
▁붙이	-10.4751
▁표현하지	-10.4754
▁겨울	-10.4755
▁결심이	-10.4756
▁케이스	-10.4756
월	-10.476
▁대수	-10.476
되는	-10.476
▁시작할	-10.4762
▁사실이	-10.4776
▁다가오	-10.4785
▁돌아가고	-10.4786
▁없대	-10.48
▁애기	-10.4807
▁남자한테	-10.4812
▁마시지	-10.4815
뽑기	-10.4824
▁알겠어	-10.4828
파	-10.4831
▁늦어	-10.484
▁물어보면	-10.4844
▁기다렸	-10.4852
▁배워보	-10.4853
▁요리	-10.4857
▁업	-10.4857
▁향기	-10.4879
▁놀까	-10.4883
▁생각할까	-10.4884
▁아니지	-10.4885
갔어	-10.4893
▁퍼	-10.491
▁어울	-10.4914
▁돌아오지	-10.4915
참고	-10.4946
▁매력있	-10.4951
▁필요하지	-10.4958
▁이어가	-10.4963
▁준비할	-10.4965
▁타인	-10.4966
▁사랑이에요	-10.4968
▁일이라	-10.4968
▁지났어	-10.4974
▁입지	-10.4977
▁몰랐어	-10.4978
▁못자	-10.4982
▁켜	-10.4994
▁놈	-10.5001
▁취직	-10.5002
▁한계	-10.5041
▁든든	-10.5044
는걸	-10.5052
▁쌓	-10.5053
▁부족	-10.5057
▁연속이	-10.5058
▁특	-10.5065
▁힘들지만	-10.5065
▁약간	-10.5069
▁힘들겠죠	-10.5078
▁바보같	-10.5091
▁직	-10.5096
▁남는	-10.5127
▁끊는	-10.5127
▁났나봐	-10.513
▁안주	-10.5134
▁키우는	-10.5141
▁사랑한다는	-10.5144
기로	-10.5155
▁진지	-10.5155
▁색	-10.5163
▁잊어가는	-10.5165
되었길	-10.5167
스러워	-10.5185
▁연애하는	-10.5187
▁먹지	-10.5192
각	-10.5201
▁극복하	-10.521
름이	-10.5221
▁당당해	-10.5227
▁정성	-10.5232
▁이겨야	-10.525
▁순수하	-10.5257
타	-10.5258
용해	-10.5262
하는지	-10.5263
▁후회없	-10.5269
지네	-10.5275
▁마지막이	-10.5279
▁사람인데	-10.5293
까운	-10.53
절한	-10.5304
▁견디	-10.5318
▁오지	-10.5338
되시길	-10.5339
▁일정	-10.5355
▁정상	-10.5368
담	-10.5372
▁헬스장에	-10.5373
▁생겼을	-10.538
▁넣어	-10.538
▁살아가는	-10.5381
▁맞춰주	-10.5394
했다	-10.5398
▁써보	-10.54
▁줄까	-10.54
▁답답하다	-10.5403
▁공부해	-10.5411
▁고치고	-10.5413
있	-10.5424
▁접는	-10.5433
오네	-10.5435
▁인연이었	-10.5442
▁걸리겠	-10.5463
▁좋은거	-10.5475
▁못난	-10.5477
▁기술	-10.5491
야하나	-10.5495
▁무덤덤해	-10.5524
▁남은	-10.5542
셨어	-10.5552
▁속상	-10.5552
▁지는	-10.5556
▁무리	-10.5565
▁커지	-10.5566
▁척하는	-10.5568
치는	-10.5571
사람은	-10.5573
▁감으	-10.5581
▁한거	-10.5603
▁의	-10.5616
▁이별하고	-10.5618
▁익숙해지	-10.5619
강	-10.5621
▁연애하면	-10.5622
▁크겠	-10.5623
▁없었	-10.5634
▁기다	-10.5638
▁욕해	-10.5646
▁배려해	-10.5652
리세요	-10.5652
▁끼	-10.5664
색	-10.567
볼	-10.568
▁주말이네	-10.5686
려구	-10.5691
▁조급하	-10.5695
▁부담되	-10.5701
▁향이	-10.5708
▁되어가	-10.5714
▁미치겠	-10.5715
들면	-10.5716
▁듣는	-10.5716
▁나네	-10.5716
하던	-10.5719
청	-10.5722
간다	-10.5735
빛	-10.5736
▁은퇴	-10.5741
~~	-10.5754
구경	-10.5757
옷	-10.5759
그만	-10.5765
▁나아	-10.5773
▁상황인	-10.5773
▁만족	-10.5774
없어	-10.5777
맞나	-10.5793
조건	-10.5797
▁지켜보는	-10.5801
▁대단	-10.5802
▁그만하고	-10.5813
▁무시해	-10.5813
포	-10.5815
▁째	-10.5818
▁든든하	-10.5824
▁풀어야	-10.5834
생활	-10.584
▁바뀌어	-10.5848
감이	-10.5849
▁재밌을	-10.5849
▁재미있는	-10.585
언	-10.5878
▁지르	-10.588
계절	-10.5887
▁결혼해야	-10.5893
필	-10.5898
▁도와드릴	-10.5919
▁여행가	-10.592
확	-10.5921
있어	-10.5926
▁갔	-10.5945
▁예뻐지	-10.5959
외	-10.5961
안할	-10.5964
▁취직할	-10.5977
지겠네	-10.6002
카드	-10.6002
▁안좋	-10.6009
인데요	-10.601
인걸까	-10.6014
▁단순	-10.6034
▁공시	-10.6038
▁만들기	-10.6046
▁만한	-10.6052
▁실수하	-10.6063
하나봐	-10.6067
▁웃는	-10.6069
▁극복해	-10.6069
▁사람이다	-10.6093
▁뭔	-10.61
들지	-10.6104
▁닮	-10.6116
▁이기	-10.6118
린다	-10.6122
▁골	-10.6148
▁태어	-10.6148
▁몇일	-10.6155
이었나봐	-10.6157
▁짱	-10.6168
▁헤어져	-10.6169
식을	-10.6171
▁만족하	-10.6187
▁줄일	-10.6198
▁헷갈	-10.6206
▁좋았겠	-10.6215
을때	-10.6229
▁짜증	-10.6237
▁되돌	-10.6246
와야	-10.6248
들어	-10.6248
▁무뎌지	-10.625
▁표현하	-10.6262
▁집안	-10.6264
하시겠	-10.6265
닥	-10.6267
▁돌아올	-10.627
▁샀	-10.6273
▁바랄	-10.6278
▁자책	-10.6279
▁탓	-10.6279
촉	-10.6279
주실	-10.6279
정규직	-10.628
춰	-10.628
▁내면	-10.6282
▁광	-10.6282
힌	-10.6283
▁메뉴	-10.6283
▁씁	-10.6283
-	-10.6283
▁곱	-10.6283
▁뒹굴	-10.6283
▁버릇	-10.6283
▁수면양말	-10.6283
▁의존	-10.6283
▁객관적	-10.6283
▁기쁨	-10.6283
▁기프트콘	-10.6283
▁낚시	-10.6283
▁눈썹	-10.6283
▁랜선	-10.6283
▁레시피	-10.6283
▁맴	-10.6283
▁맺	-10.6283
▁머리카락	-10.6283
▁보이스피싱	-10.6283
▁셀프웨딩	-10.6283
▁소액결제	-10.6283
▁숫자	-10.6283
▁스타트업	-10.6283
▁스터디	-10.6283
▁어젯밤	-10.6283
▁예측	-10.6283
▁웹툰	-10.6283
▁이모티콘	-10.6283
▁인터넷	-10.6283
▁지겨워	-10.6283
▁축의금	-10.6283
▁토닥토닥	-10.6283
▁하우스웨딩	-10.6283
▁호르몬	-10.6283
▁화이트데이	-10.6283
돕	-10.6283
륵	-10.6283
벤	-10.6283
컷	-10.6283
팸	-10.6283
펑	-10.6283
풋	-10.6283
▁꿰	-10.6283
▁브랜드	-10.6283
▁아울렛	-10.6283
▁얼떨떨	-10.6283
▁체육대회	-10.6283
▁헹	-10.6283
▁혼란스럽	-10.6283
앨	-10.6283
팬	-10.6283
▁무언가	-10.6283
▁어리석	-10.6283
▁좌절	-10.6283
▁표출	-10.6283
샌	-10.6283
▁비행기표	-10.6283
▁케익	-10.6283
▁격식	-10.6283
▁식단조절	-10.6283
▁블록	-10.6283
▁외출하	-10.6283
▁메뉴얼	-10.6283
▁누굴	-10.6283
▁뜨겁	-10.6283
▁희생양	-10.6283
▁깜빡거려	-10.6283
▁현명	-10.6283
▁실패	-10.6283
▁스릴있	-10.6283
▁충실하	-10.6283
▁생리통	-10.6283
▁관찰	-10.6283
▁으아	-10.6283
▁탈모	-10.6284
▁교양	-10.6284
▁흐려지	-10.6284
▁스테	-10.6284
▁엮여	-10.6284
▁명품	-10.6284
▁예능	-10.6284
▁부탁드립니다	-10.6284
▁색다른	-10.6284
▁찬성	-10.6284
▁힘드셨	-10.6284
▁조카	-10.6284
▁대청소	-10.6285
▁외국인	-10.6285
▁들이대	-10.6285
폭력	-10.6285
▁잃어버	-10.6285
▁증상이	-10.6285
▁가벼워질	-10.6286
▁쉬었다	-10.6286
▁반영	-10.6286
▁택시비	-10.6286
▁소심해	-10.6286
▁식혀	-10.6286
▁다듬	-10.6286
▁속아주	-10.6286
▁갑작스러웠	-10.6286
테리	-10.6287
▁내딛	-10.6287
▁탈출구	-10.6287
▁졸린	-10.6288
▁한번쯤	-10.6288
▁천국	-10.6289
▁환기	-10.6289
▁경제	-10.6289
▁바지	-10.6289
▁저편	-10.6289
▁주량	-10.6289
▁문제인가요	-10.6291
▁허전함	-10.6291
▁넘었네	-10.6291
▁시간표	-10.6291
스트	-10.6291
▁놀아줘	-10.6291
▁탔	-10.6292
▁구두	-10.6292
▁초기화	-10.6292
▁추천해줘	-10.6292
▁사표	-10.6292
▁정리되길	-10.6292
▁요청	-10.6292
▁더러워	-10.6292
▁느낀다면	-10.6292
▁달라질	-10.6292
▁잘지내	-10.6293
▁난방	-10.6293
▁좋아해줬으면	-10.6293
▁공통점	-10.6294
▁아님	-10.6294
▁프로	-10.6294
▁이별했습니다	-10.6294
▁떠날	-10.6294
▁양치	-10.6294
▁귀여운	-10.6295
었나	-10.6295
▁편린	-10.6296
▁거둬	-10.6296
▁통장	-10.63
▁복잡했나	-10.6302
▁봤나	-10.6302
가지만	-10.6303
▁한강	-10.6303
▁한눈	-10.6303
▁끝났으면	-10.6303
▁먹었는데	-10.6303
▁양말	-10.6304
▁있었는지	-10.6304
▁자취	-10.6304
▁단단해지	-10.6306
▁일방적	-10.6307
재인가	-10.6307
디오	-10.6307
▁냉	-10.6307
▁여기까지였	-10.6311
▁단수	-10.6313
▁속상할거	-10.6313
▁이야기하고	-10.6315
▁점심시간에	-10.6316
▁깍	-10.6319
▁권리	-10.632
▁별로야	-10.6324
▁사랑했으니	-10.6325
▁연휴	-10.6329
▁신경쓰인	-10.6329
▁늙어가	-10.6329
▁마실	-10.633
▁고백할	-10.6331
▁수영	-10.6331
▁낫겠지	-10.6332
▁잘자요	-10.6333
하기로	-10.6334
▁달력	-10.6335
▁판단력	-10.6335
▁특히	-10.6335
▁쟁취하는	-10.6335
▁지친	-10.6336
▁어른	-10.6339
▁동성	-10.6339
▁응	-10.634
▁행복할까	-10.6341
▁도망가	-10.6345
▁위로해줄	-10.6346
▁지우	-10.6346
▁필수	-10.6347
▁윗	-10.6348
▁찌질한	-10.6351
▁불가능	-10.6351
▁다칠	-10.6354
▁다툼	-10.6354
▁축제	-10.6355
▁성형	-10.6356
▁날려	-10.6356
▁효도	-10.6357
▁웃음	-10.6358
▁메리	-10.6358
▁무뎌지는	-10.6362
▁걸린	-10.6363
사람에게	-10.6364
▁즐거워	-10.6367
▁찾	-10.6369
▁견디기	-10.637
▁궁금해하지	-10.6372
▁채우	-10.6378
▁이별이란	-10.6379
▁갔는데	-10.6379
▁집착하지	-10.638
▁예고	-10.6388
▁필요한가요	-10.6393
▁유지	-10.6395
▁독서	-10.6396
바이	-10.6398
▁하다니	-10.6398
너무	-10.64
▁귀엽죠	-10.6401
체인	-10.6403
▁무기력	-10.6403
줘야	-10.6405
▁치매	-10.6406
▁때인	-10.6409
▁하셔	-10.6409
▁마주하	-10.6415
▁의자	-10.6418
원합니다	-10.6419
▁솔직해	-10.6419
▁울고	-10.6446
▁언제까지	-10.6447
▁실력	-10.6448
▁살지	-10.645
▁깔끔한	-10.6451
▁견	-10.6451
▁뜨	-10.6453
▁걷다	-10.6454
▁포기하지	-10.6466
▁끝났네	-10.6469
들어서	-10.647
▁보듬어주	-10.6472
▁힘든데	-10.6475
▁올려달	-10.6477
▁사이로	-10.6489
▁편안하	-10.6489
▁약해지	-10.6489
감한	-10.6492
▁놀랐겠	-10.6495
망했어	-10.6495
▁분에게	-10.6496
▁헤어지기	-10.6497
▁빨	-10.6502
▁사랑했	-10.6514
▁여자에게	-10.6518
▁나쁘	-10.6523
▁따르	-10.6536
▁친구라	-10.6537
▁쪽	-10.6539
연애	-10.6539
▁채워보세요	-10.6543
▁찾은	-10.6558
▁묻어두는	-10.6559
봐야지	-10.6576
▁부려	-10.6577
잔하네	-10.6577
▁사전	-10.6582
▁먹기	-10.6584
▁놓는	-10.6587
았나봐	-10.659
두통	-10.6596
▁될수	-10.6601
▁지하철에	-10.6608
이니까	-10.6608
▁잡는	-10.661
연이	-10.6611
▁괜찮다	-10.6626
▁소식에	-10.663
▁정확한	-10.6643
▁대하는	-10.6644
▁당한	-10.6645
▁잘생겼어	-10.6647
년만	-10.6653
▁작아	-10.6659
▁좋으니	-10.666
▁있대	-10.6661
▁사수	-10.6662
▁놓아줄	-10.6665
▁끊으	-10.6667
▁단점	-10.6667
▁학생이	-10.6672
져서	-10.6677
▁겨	-10.6679
직	-10.6681
상일	-10.6683
▁올까	-10.6684
▁도와드	-10.669
▁이야기할	-10.6692
▁영상	-10.6694
▁구분	-10.6695
▁사귀다	-10.6698
▁마음가는	-10.6712
▁머릿속	-10.6714
▁이뤄지	-10.6722
▁뜨는	-10.6723
▁좋은점	-10.6726
다른	-10.6741
같네	-10.6743
▁첫사랑이	-10.6749
▁않으셨	-10.675
▁상처주	-10.6754
▁이러	-10.6758
▁아쉽	-10.6762
▁걸어보	-10.6762
▁도와줄	-10.6766
▁공부해야	-10.6773
▁긍정적이	-10.6773
▁해봐	-10.6785
사드리	-10.6807
▁방심	-10.6809
했다면	-10.6811
▁바꿀까	-10.682
▁맞나봐	-10.6821
▁바꿔야	-10.6822
▁빛	-10.6823
▁익숙함이	-10.6846
▁겨울에	-10.6848
▁마무리하	-10.6859
▁봤네	-10.6862
실에	-10.6867
석	-10.6877
▁글자	-10.6878
야겠지	-10.6884
갈수록	-10.6902
▁붙	-10.6913
▁지내요	-10.6915
▁준비중	-10.6934
▁빠	-10.6937
▁싶다는	-10.6938
▁여지	-10.6942
▁심어	-10.6948
▁짝사랑만	-10.6957
▁일주일이	-10.6962
먹	-10.6965
▁'	-10.6966
버렸어	-10.6974
▁비슷한	-10.6975
▁참을	-10.6977
고치기	-10.6982
직하	-10.6989
▁시간이었	-10.6994
▁동물이	-10.6995
됩니다	-10.6996
▁처리	-10.6997
▁잘해주	-10.7007
▁재밌다	-10.7021
▁취향이	-10.7022
▁계절	-10.7028
▁했다	-10.7035
될까	-10.7041
카	-10.7042
▁힘든가	-10.705
▁태도에	-10.7066
▁해야겠	-10.7068
▁사내	-10.7069
▁보내세요	-10.7076
났어	-10.7081
받았어	-10.7091
▁처럼	-10.7102
▁하게	-10.7103
▁포기해야	-10.7106
받으면서	-10.7128
▁않기	-10.713
▁반장	-10.7132
▁병이	-10.714
해주는	-10.7145
▁터지	-10.7145
▁자신다	-10.7153
▁치	-10.7156
▁의지하	-10.7158
▁거지	-10.7159
보내는	-10.7172
▁몰려	-10.7186
▁붙잡아	-10.7199
▁끝인가	-10.7202
있나봐	-10.7209
우는	-10.721
▁얘기해	-10.7211
해줘서	-10.7217
▁짧아	-10.7224
▁크리스마스에	-10.7228
▁아프겠	-10.7244
▁자르	-10.7274
▁오락가락	-10.7289
▁벗	-10.7291
납니다	-10.7294
▁지냈	-10.7307
▁다르니	-10.7315
▁힘들고	-10.7317
▁착각이	-10.7323
▁될지	-10.7326
▁이겨	-10.7337
라서	-10.7344
▁고독	-10.7346
▁관계에	-10.7359
▁지속해	-10.7365
▁흐르면	-10.7367
▁메	-10.737
▁치맥이	-10.7381
절	-10.7426
▁보내지	-10.7431
백	-10.7433
▁하니	-10.7445
으려면	-10.7454
▁불안하	-10.7456
▁동생이	-10.7458
▁술마시	-10.7459
오길	-10.7468
▁채	-10.7489
볼때	-10.7497
▁부족한가	-10.75
▁민	-10.7503
▁짝	-10.7512
▁치열	-10.7535
어야	-10.7535
잔	-10.7538
▁들어왔	-10.7543
▁뜻하	-10.7543
▁괜찮지	-10.7546
▁되었네	-10.7547
▁찾아가는	-10.7549
관계	-10.7563
▁평가	-10.757
▁마셨	-10.7574
▁간단	-10.7575
▁말해봐	-10.7576
▁하나봐	-10.759
▁가게	-10.7591
시켜	-10.7601
▁사람이네	-10.7614
3	-10.7635
▁사주	-10.7645
▁되는거	-10.7651
겁	-10.7677
었나요	-10.7681
하시는	-10.7683
올려	-10.7692
▁고고	-10.7696
▁즐겨보	-10.7697
이래	-10.7707
5	-10.7707
호	-10.7714
▁이별하는	-10.7731
▁그렇다	-10.7735
▁며	-10.7745
잼	-10.7776
▁기억해주	-10.7777
▁수건	-10.7787
평가	-10.7794
▁마주치면	-10.7794
이는	-10.7794
▁모른척하	-10.7796
▁했는	-10.78
널	-10.7802
커	-10.7806
빈	-10.7811
팔	-10.7812
▁해결해	-10.7831
▁야근이	-10.7849
당하기	-10.785
▁그러다	-10.787
▁슬퍼하	-10.7873
시는	-10.7886
감기	-10.7896
▁무너	-10.7932
▁즐	-10.7941
회	-10.7946
프	-10.7946
내세요	-10.7952
장이	-10.7968
랐나봐	-10.7974
▁이것	-10.7981
▁답답	-10.7983
▁뽑	-10.7983
하지마	-10.802
▁청소하	-10.8028
스러울	-10.8069
았습니다	-10.807
오게	-10.8077
▁일반	-10.8089
이냐	-10.8099
게임	-10.8111
▁유학	-10.812
▁만나러	-10.8122
▁가득	-10.8124
이겠죠	-10.8137
였는	-10.8142
▁때려	-10.8153
▁본받	-10.8173
▁풀어보	-10.8173
▁정리했	-10.8187
▁심심	-10.8194
▁행복이	-10.8204
▁무색하	-10.8205
▁사겨	-10.8205
해주	-10.8209
롭	-10.8211
▁솔로	-10.8218
▁열어	-10.8224
▁것일	-10.8226
▁전하	-10.8229
▁지금이	-10.8239
▁점심시간	-10.8246
닝	-10.8254
주인	-10.8255
▁말아야	-10.8266
▁하는지	-10.8268
탕	-10.8272
▁발렌타인데이	-10.8276
즘	-10.8276
류	-10.8279
궈	-10.828
▁씁쓸	-10.8281
듭니다	-10.8282
범	-10.8282
▁땡	-10.8283
봉	-10.8283
▁소름돋	-10.8283
송	-10.8283
▁간질간질	-10.8283
▁견과류	-10.8283
▁그린라이트	-10.8283
▁긁었어	-10.8283
▁뇌	-10.8283
▁눈꺼풀	-10.8283
▁눕	-10.8283
▁뒷담화	-10.8283
▁리폼	-10.8283
▁뻐근	-10.8283
▁설렐	-10.8283
▁어딘가	-10.8283
▁얽	-10.8283
▁왠	-10.8283
▁유부남	-10.8283
▁층간소음	-10.8283
▁캬	-10.8283
▁컴퓨터	-10.8283
▁특징	-10.8283
▁헥헥	-10.8283
▁현관문	-10.8283
▁훔쳐보	-10.8283
겐	-10.8283
딩	-10.8283
띠	-10.8283
렴	-10.8283
옵	-10.8283
쫌	-10.8283
찐	-10.8283
▁핫	-10.8283
▁현타	-10.8283
하려	-10.8283
▁느꼈	-10.8283
▁오지랖	-10.8283
▁피시방	-10.8283
▁비정상이	-10.8283
▁사회	-10.8283
▁매몰	-10.8283
▁쇼핑몰	-10.8283
▁욜로	-10.8283
▁예쁠	-10.8283
▁주워담	-10.8283
▁난감하	-10.8283
▁주인공	-10.8283
그램	-10.8283
▁컴터	-10.8283
▁카공	-10.8283
▁사로잡	-10.8283
▁뒤돌아	-10.8283
▁빼앗	-10.8283
▁체력	-10.8283
▁농담	-10.8283
▁병행	-10.8283
▁자유여행이	-10.8283
▁평범	-10.8284
▁구박하	-10.8284
▁찬물	-10.8284
▁뜨끈	-10.8284
▁몸무게	-10.8284
▁롱디	-10.8284
▁발견	-10.8284
▁자장가	-10.8284
▁투성이	-10.8284
▁열흘	-10.8284
▁재설계	-10.8284
▁편의점	-10.8284
▁맞춤법	-10.8284
▁정열적	-10.8284
▁학벌	-10.8284
키기	-10.8284
▁화장품	-10.8284
▁딴짓	-10.8284
▁망했다	-10.8285
▁서류에서	-10.8285
▁제정신	-10.8285
▁위축	-10.8285
▁보여드리	-10.8285
▁늦잠	-10.8285
▁신기하	-10.8285
용품	-10.8285
▁유명	-10.8286
▁나빴네	-10.8286
▁안타까워	-10.8286
▁태그	-10.8286
▁스쳐	-10.8286
▁지루	-10.8286
▁좋았을텐데	-10.8286
▁제습기	-10.8286
▁벌레	-10.8287
▁기다림	-10.8287
▁비밀연애	-10.8287
▁계획적이	-10.8287
▁분양	-10.8287
▁설마	-10.8287
▁되돌아보	-10.8288
▁먹어야겠다	-10.8288
▁마실까	-10.8288
▁찾아온	-10.8289
▁미치겠습니다	-10.8289
▁구매	-10.8289
▁웃겨	-10.8289
▁미끄러	-10.829
님들	-10.829
▁이끌어	-10.829
▁똑같아	-10.8291
▁끝났습니다	-10.8291
▁좋아한대	-10.8292
▁곤두	-10.8292
▁이틀	-10.8293
▁꿈꾸	-10.8294
▁나가볼까	-10.8294
▁사먹	-10.8294
주째	-10.8295
▁자장면이	-10.8295
▁감수성	-10.8295
▁무뎌질	-10.8296
▁한숨만	-10.8296
▁식사	-10.8296
설계	-10.8297
▁후배	-10.8298
겁니다	-10.8298
▁편안해질	-10.8299
▁미치겠어	-10.8299
▁전여자친구	-10.83
▁신경쓰여	-10.83
▁해줄	-10.83
▁나온대	-10.8301
▁어쩔수없	-10.8301
지나갑니다	-10.8301
▁기다렸나봐	-10.8301
▁효	-10.8301
▁배려해야	-10.8302
년연애	-10.8302
▁북	-10.8303
▁의심하지	-10.8303
▁돌아와	-10.8304
▁그쪽	-10.8304
▁편하대	-10.8304
▁군인	-10.8305
냐구	-10.8306
▁털	-10.8307
▁못참고	-10.8307
▁끌지	-10.8308
▁접어야	-10.8308
▁떠나간	-10.8311
▁나빠	-10.8312
▁따라가	-10.8312
▁쓰리	-10.8314
▁졸라	-10.8314
▁나갔어	-10.8315
▁보약	-10.8315
▁친해질	-10.8315
▁데려다주려	-10.8316
▁한순간	-10.8317
▁모처럼	-10.8321
▁난방비	-10.8323
▁첫눈	-10.8323
▁싸운	-10.8323
▁티나나	-10.8324
▁수업	-10.8324
▁이번달	-10.8327
▁꿔	-10.8328
▁친절한	-10.8328
▁잤	-10.8329
▁시간이었을	-10.8329
▁질문이	-10.833
▁들텐데	-10.8333
▁재밌어	-10.8334
▁비참한	-10.8335
▁내려놓고	-10.8335
▁뿌려	-10.8336
▁작아지	-10.8338
▁해야돼	-10.834
▁잊으려고	-10.8341
▁힘들어져	-10.8343
▁취직이나	-10.8344
▁발라	-10.8346
▁남나	-10.8348
▁받으셨	-10.835
▁무거	-10.835
▁알아주	-10.8351
▁탈퇴	-10.8353
▁농	-10.8355
▁미안	-10.8357
▁사줘	-10.8358
▁공기	-10.8358
▁연락했는데	-10.8358
▁모여	-10.836
▁사냐	-10.836
▁결혼하기	-10.8361
▁깜빡	-10.8365
▁남아있	-10.8365
▁뭐임	-10.8365
▁지날	-10.8366
▁지우고	-10.8366
▁주택	-10.8367
▁프로필	-10.8369
▁하트	-10.837
▁개강	-10.8374
▁알려면	-10.8375
유	-10.8377
▁들까	-10.838
▁얘	-10.8381
▁보냈어	-10.8384
렸으면	-10.8385
▁좋긴	-10.8387
▁지냈나	-10.8388
▁연애하는데	-10.8393
▁가스	-10.8396
▁보고싶네	-10.8398
▁일상으로	-10.8401
▁아프지만	-10.8404
▁보셨나	-10.8404
▁사랑이야기	-10.8406
▁보자고	-10.8407
▁먼	-10.8407
▁친구로서	-10.8409
▁식었	-10.841
▁초대하	-10.8414
▁아니겠지	-10.8414
올려봐	-10.8416
▁사랑하세요	-10.8416
침해	-10.8417
▁참다	-10.8417
▁잃을	-10.8417
▁심심해	-10.8417
▁열까지	-10.8419
▁차인	-10.842
▁공부방법	-10.8421
▁둘다	-10.8422
▁청춘이	-10.8422
▁가을이	-10.8426
▁꼼꼼한	-10.8429
▁사겨도	-10.843
▁놀러가	-10.8431
▁싶으면	-10.8431
▁트	-10.8433
▁백업해	-10.8435
▁사과해야	-10.8444
러운	-10.8444
▁성숙해지	-10.8445
법이	-10.8447
달이	-10.845
▁여러명	-10.8454
▁있었는데	-10.8454
마시며	-10.8459
▁아련하	-10.8461
▁이성이	-10.8469
▁끝인가봐	-10.8469
▁덕	-10.8472
▁쏟아	-10.8474
▁거부	-10.8477
▁읽씹	-10.8477
▁나약	-10.8485
▁닮아	-10.8491
▁속시원해	-10.8495
▁할줄	-10.8496
▁미루	-10.8511
▁악	-10.8512
기사	-10.8519
▁나들이	-10.8523
▁면도	-10.8525
▁연애인	-10.8528
을거	-10.8535
▁안나나	-10.8538
▁어장인	-10.8542
▁말했어	-10.8545
▁떨어	-10.8545
▁떠났	-10.8546
▁버려야지	-10.8549
▁힘드시	-10.8553
▁전까지	-10.8561
▁검색해	-10.8561
▁추가	-10.8562
보이네	-10.8563
▁안갈	-10.8566
▁감당	-10.8571
▁빵	-10.8576
▁반복되	-10.8576
▁나타났	-10.8591
▁0	-10.8596
▁절약해	-10.8597
되어있는	-10.8604
▁펴	-10.8609
▁알아내	-10.8612
▁됐나	-10.8612
기한	-10.8614
▁하아	-10.8616
▁부담스러워할까	-10.8625
▁굴	-10.8625
▁말한	-10.8626
여자	-10.863
▁솔	-10.8639
▁물가	-10.8646
한거	-10.8646
▁위험할	-10.8648
▁작	-10.8662
기지	-10.8663
▁친구사이	-10.8664
▁나오겠	-10.8666
▁아니네	-10.8667
에도	-10.867
▁낫지	-10.8671
▁감정들	-10.8675
▁창업	-10.8675
▁받아들여지	-10.8685
▁햇	-10.8686
▁틈	-10.8686
심이	-10.8689
▁축하	-10.869
▁접어두는	-10.8709
▁낙	-10.8716
00	-10.8724
▁떠나보	-10.8727
▁고백할까	-10.873
▁배정	-10.8733
▁두근거리	-10.8734
▁생각하면서	-10.8736
▁어떻게해	-10.8736
▁이대로	-10.8737
▁적당해	-10.8739
▁붙는	-10.874
▁그러지	-10.8742
▁ᄒᄒ	-10.8748
▁못하겠	-10.8748
▁원하	-10.8752
▁떡	-10.8764
▁쌓였	-10.8774
▁할인	-10.8776
▁빈	-10.8776
▁그럴까요	-10.8787
▁부족했	-10.8796
▁사람하고	-10.8802
▁해야할	-10.8804
▁만들죠	-10.8806
▁끝내는	-10.8808
코인	-10.8808
▁잼	-10.8816
▁깨질	-10.8818
▁카	-10.8823
돼야	-10.8824
▁응원해	-10.8827
▁데서	-10.8838
▁알게되면	-10.8842
▁그리운가	-10.8846
▁상처받는	-10.8847
▁막막하	-10.8849
▁자라	-10.8858
▁선물해	-10.8859
▁해보면	-10.8861
▁빌리	-10.8865
▁불면증	-10.8865
▁안될	-10.8875
▁허무하네	-10.8882
▁자다가	-10.8889
▁일과	-10.8895
▁서운하겠	-10.8897
▁차단하는	-10.8899
▁저음이	-10.8899
▁풀려	-10.8902
▁전과	-10.8903
▁가까워	-10.8904
일만	-10.8909
▁많겠	-10.8923
▁싫어하	-10.8923
▁표현에	-10.8924
▁믿는	-10.8926
▁그랬을	-10.8928
▁자리에	-10.8935
▁이혼이	-10.8937
▁아무는	-10.8947
▁되려	-10.8947
▁진도	-10.8951
▁싫은가봐	-10.8971
▁뻔했	-10.8982
▁없다가	-10.8987
▁일기	-10.8991
▁우리집	-10.8997
▁지키	-10.9024
▁달라졌	-10.904
▁밥이	-10.9041
▁사랑이었으	-10.9056
▁결혼한	-10.907
▁아련	-10.9072
▁대단해	-10.9073
▁아이돌이	-10.9075
▁우정	-10.9088
▁치열해	-10.9092
▁사랑합니다	-10.9094
▁마주	-10.9098
왔다	-10.9103
▁구별해	-10.911
▁비워보	-10.9113
▁오랜만	-10.9121
▁뒀	-10.9131
▁탈이	-10.9138
▁관심있	-10.9149
페이	-10.9149
▁고백해야	-10.9152
▁숨기	-10.9164
▁저기	-10.9168
▁익숙해지는	-10.9175
▁달에	-10.918
▁내년	-10.9181
▁보기만	-10.9183
▁덜하	-10.9193
때리는	-10.9199
쳐버리	-10.9201
▁안정	-10.9201
이가	-10.9211
▁말만	-10.9211
▁찬	-10.9216
▁모으	-10.9221
▁찾아왔	-10.9229
▁어이	-10.9232
▁그만하	-10.9235
▁갔는	-10.9251
줘서	-10.927
▁상관이	-10.9272
해가	-10.9296
▁낼	-10.9301
▁기억나	-10.9363
▁울적해	-10.9367
이란게	-10.938
▁오락가락하	-10.9387
움이	-10.939
▁울면	-10.9395
▁날이었	-10.94
근	-10.941
▁카페에	-10.9428
▁숙	-10.9429
▁실망하	-10.9433
▁괜찮은거	-10.9446
▁수준	-10.9449
여자들이	-10.9457
▁예민	-10.9459
▁어떻	-10.946
데이트	-10.9461
▁불안한	-10.9465
▁사이라	-10.9468
장소에	-10.9474
▁맞이	-10.9474
이고	-10.9474
어질	-10.9476
▁꿨	-10.9479
▁티나	-10.9481
▁고백해보	-10.9482
▁허락하	-10.9483
▁버려야	-10.9485
▁붙잡으	-10.9491
▁꿨는	-10.9492
▁데이트하기	-10.9507
소음	-10.9517
▁힘들까	-10.952
▁부리	-10.9532
▁기다려야	-10.9537
▁갖자	-10.9538
▁아닌가	-10.9542
▁사라	-10.9544
▁나야	-10.9548
▁이러는	-10.955
▁보내보	-10.9551
거지	-10.956
▁잊어버리는	-10.956
▁안풀	-10.9566
▁적극적이	-10.9577
▁이어나가	-10.9585
남한테	-10.9588
▁현실이	-10.9592
▁운명적	-10.9596
ᄒᄒ	-10.9601
▁의심해	-10.9604
많은	-10.9628
▁요구	-10.9646
족	-10.9648
참	-10.9668
한건가	-10.9669
▁일인가봐	-10.9675
▁막히	-10.9679
인거	-10.968
▁이길	-10.9681
▁여사친	-10.9683
▁오겠	-10.9689
좋아하는	-10.9692
▁학교에	-10.9709
▁찾으	-10.9709
▁부여하	-10.9723
▁나름	-10.9731
▁후련해	-10.9739
▁화장하	-10.9744
아는데도	-10.9747
▁살았	-10.976
▁날인	-10.9769
톡	-10.9776
▁알아줄	-10.9783
린대	-10.9796
이렇게	-10.9797
그래	-10.9798
있겠죠	-10.9809
▁타나	-10.9824
▁되었는	-10.9833
▁요구하	-10.9833
▁얻는	-10.9835
망	-10.9848
▁착각하	-10.9848
▁생각지	-10.9849
▁하루였	-10.985
버	-10.985
▁고백이	-10.9853
▁어떡하	-10.9857
▁수면	-10.9859
▁쿨	-10.9868
▁생각하세	-10.987
▁먹자	-10.9895
▁죽어	-10.9897
▁결혼해	-10.9906
▁깎아	-10.9925
▁싫은가	-10.993
▁지우는	-10.9932
▁로	-10.9933
▁싶을	-10.9936
끔하	-10.9945
▁존중하	-10.9951
마트	-10.9953
▁떨쳐	-10.9955
▁남자분들	-10.9966
되겠죠	-10.9967
▁반에	-10.998
▁이별이에요	-10.9987
▁뭐하	-10.9995
비가	-10.9998
▁이어지	-11.0004
부지	-11.0004
달렸나봐	-11.0006
▁시간인가	-11.0032
넘	-11.0033
▁조심해야	-11.0033
▁전하면	-11.0039
책	-11.0042
▁나라	-11.0043
▁경험해	-11.0046
큰	-11.0048
▁내릴	-11.0048
▁돌보	-11.0049
인건가	-11.0056
웃	-11.0057
▁차이일	-11.0062
▁앞이	-11.0076
▁애석	-11.0082
워야	-11.0083
있습니다	-11.0086
미리	-11.01
▁안하지	-11.01
받은	-11.0119
싶다	-11.0121
순	-11.013
▁기억들	-11.0148
▁지적	-11.0153
곳에	-11.0155
▁없고	-11.0159
안녕	-11.016
▁모르니	-11.0161
갖	-11.0162
폭	-11.0175
테	-11.0177
품	-11.0177
영	-11.0179
▁머릿속에	-11.0181
세포	-11.0193
▁결혼준비	-11.0196
봤어	-11.0197
▁귀찮다	-11.0198
었다	-11.0199
▁시급	-11.0199
꿀	-11.0208
욕	-11.0209
어야죠	-11.021
계	-11.0214
▁옳	-11.0226
투	-11.0239
▁소문이	-11.0241
벌	-11.0247
▁연인이	-11.0247
▁낙이	-11.0253
공원	-11.0257
자격증	-11.0259
공	-11.0259
▁뭐하면	-11.0259
눈물	-11.026
라는게	-11.0262
철	-11.0263
영상	-11.0267
방향	-11.0269
치료	-11.0271
패턴	-11.0272
놔	-11.0272
소모	-11.0272
망이지	-11.0275
었네	-11.0276
선배	-11.0277
자리에	-11.0283
▁많나	-11.0285
틈	-11.0288
햇	-11.0288
끌	-11.0289
육아	-11.029
것만	-11.0291
짠	-11.0291
▁안할	-11.0298
분들	-11.03
단점	-11.0301
클	-11.0304
나올	-11.0305
나쁘	-11.0306
▁추	-11.0307
▁후회할까	-11.0308
▁힘들어하	-11.0308
▁정리해야	-11.0312
초대	-11.0313
▁언제가	-11.0313
솔	-11.0317
▁준비하면	-11.0317
▁혼내	-11.0319
약이	-11.0325
축	-11.0326
너에게	-11.0331
어린	-11.034
▁예뻐해	-11.0351
노	-11.0357
▁약해	-11.0387
놓으	-11.0392
사람이다	-11.0398
겼는데	-11.0401
해야할까	-11.0405
▁사람이었	-11.0406
▁잊지말	-11.0408
먼	-11.0422
해야겠지	-11.0423
▁날들	-11.0429
▁반가	-11.043
▁비슷한가	-11.0438
▁말아보	-11.0443
▁할게	-11.0451
오겠죠	-11.0454
▁직업	-11.046
▁결혼하고	-11.046
수건	-11.0467
▁왕따	-11.0467
빠질	-11.0467
▁겠지	-11.0468
▁인정해	-11.0477
픈	-11.048
▁술먹	-11.0488
았	-11.0488
사람친구	-11.0493
가봐	-11.0495
▁생각할수	-11.0499
▁봐달라	-11.05
려달라고	-11.0502
그치	-11.0504
▁관리해	-11.0506
▁날에	-11.052
▁학생	-11.0523
을까요	-11.0531
▁사랑만	-11.0537
한다는	-11.0538
▁100	-11.0544
▁되시	-11.0549
▁공개	-11.0551
신가요	-11.0552
▁미워해	-11.0554
하더라고요	-11.0556
준비하는방법	-11.0564
▁해가	-11.0568
▁박	-11.0574
▁질거	-11.0574
▁실수한	-11.0582
▁칭찬해	-11.0585
▁뛰	-11.0595
▁찾아오네	-11.0603
▁싶어서	-11.0612
싶어요	-11.0618
▁멀어진	-11.0625
▁밤인	-11.0638
▁안된	-11.0639
람을	-11.0642
갔네요	-11.0648
▁아픈가	-11.065
우니	-11.0652
▁하셔야	-11.0655
따르	-11.0658
▁개강이	-11.067
▁움직	-11.0671
하다고	-11.0672
▁아쉽겠	-11.0674
▁거였	-11.068
▁흔들	-11.0684
▁똑똑	-11.0685
▁거지같	-11.0693
▁표현할	-11.0698
▁쟁취하	-11.0701
웃으	-11.0706
립니다	-11.0715
중입니다	-11.0722
▁권	-11.0725
쁜	-11.0726
▁현실에	-11.0729
▁벗어	-11.0729
▁기대하	-11.0733
▁두셨	-11.0733
곡	-11.0744
꾼	-11.0747
해본	-11.0749
▁흔적이	-11.0751
▁헤	-11.0751
▁중국	-11.0752
냥	-11.0754
▁포기하	-11.0755
▁하고싶은	-11.076
관에	-11.0766
귄	-11.077
▁컸	-11.077
▁쳐다	-11.0771
▁태어났	-11.0773
해줬으면	-11.0775
▁옥	-11.0775
▁적응해	-11.0776
여행	-11.0778
▁미칠	-11.078
▁씌	-11.078
습기	-11.078
▁삐	-11.0781
▁자유로워	-11.0781
▁휘	-11.0782
눅	-11.0783
▁멘	-11.0783
균	-11.0783
줌	-11.0783
쥬	-11.0783
▁꽉	-11.0783
▁두렵	-11.0783
B	-11.0783
X	-11.0783
go	-11.0783
▁간섭	-11.0783
▁거리두기	-11.0783
▁교양수업	-11.0783
▁그리웠나	-11.0783
▁깰	-11.0783
▁로맨스	-11.0783
▁마찬가지	-11.0783
▁무한리필	-11.0783
▁베트남	-11.0783
▁부딪히	-11.0783
▁섣부르	-11.0783
▁애프터	-11.0783
▁의사표시	-11.0783
▁이불킥	-11.0783
▁익숨함	-11.0783
▁입냄새	-11.0783
▁컨트롤	-11.0783
▁텀	-11.0783
▁풍부	-11.0783
▁헐	-11.0783
▁홈	-11.0783
▁휴유증	-11.0783
▁흐지부지	-11.0783
권이	-11.0783
귤	-11.0783
깃	-11.0783
껄	-11.0783
꿩	-11.0783
뇨	-11.0783
눴	-11.0783
덥	-11.0783
뒹	-11.0783
렵니다	-11.0783
룰	-11.0783
룽	-11.0783
뿅	-11.0783
솜	-11.0783
엠	-11.0783
율	-11.0783
쨌	-11.0783
쿠	-11.0783
팁	-11.0783
펭	-11.0783
픽	-11.0783
▁곱씹	-11.0783
▁규	-11.0783
▁대기업	-11.0783
▁선풍기	-11.0783
▁옮	-11.0783
▁유부녀	-11.0783
▁행동일수도	-11.0783
▁씨앗	-11.0783
▁근교	-11.0783
▁떨어뜨려	-11.0783
▁뱃살	-11.0783
▁섬유	-11.0783
▁괴로웠을	-11.0783
▁버렸다	-11.0783
▁중간중간	-11.0783
▁손가락	-11.0783
▁뉴스	-11.0783
▁넘어가네	-11.0783
▁엄마아빠	-11.0783
▁우습	-11.0783
▁겉모습	-11.0783
▁양면과	-11.0783
▁드러내	-11.0783
▁바람둥이	-11.0783
순위	-11.0783
▁가라앉혀	-11.0783
▁찢어지	-11.0783
▁골프	-11.0783
▁승진	-11.0783
▁미용실	-11.0783
▁베프	-11.0783
▁낮술	-11.0784
▁알뜰폰	-11.0784
▁억울	-11.0784
▁월세	-11.0784
▁주름살	-11.0784
▁선연하	-11.0784
▁가운데	-11.0784
베리	-11.0784
▁어렸을때	-11.0784
▁감정기복	-11.0784
▁구분짓	-11.0784
▁국경	-11.0784
▁고시원	-11.0784
▁소액	-11.0784
▁불순	-11.0784
▁길거리에	-11.0784
▁바꿨어	-11.0784
▁환경	-11.0785
▁벗겨	-11.0785
▁똑같애	-11.0785
▁친척	-11.0785
▁어떡함	-11.0785
▁떨린다	-11.0785
▁내려놔	-11.0785
▁당첨	-11.0785
▁변덕스러운	-11.0785
▁난처	-11.0785
▁직후	-11.0785
▁이제서야	-11.0785
▁알뜰	-11.0785
▁종지부	-11.0786
▁마음가짐	-11.0786
▁잠식시키	-11.0786
▁자제하는	-11.0786
▁직감	-11.0786
▁영역	-11.0786
▁후련해졌	-11.0786
▁직전	-11.0786
쳐올	-11.0787
▁잊혀진	-11.0787
▁다녀왔어	-11.0787
▁차였는데	-11.0787
▁필요했을텐데	-11.0787
▁조심스	-11.0787
▁찔러	-11.0788
▁체질	-11.0788
콜록	-11.0788
▁비정규직	-11.0788
▁한심해	-11.0788
▁쌓여	-11.0789
▁계약	-11.0789
▁부담된다	-11.0789
▁답답하신가	-11.0789
▁해낸	-11.0789
▁내키는	-11.079
▁비례	-11.079
▁입학	-11.079
▁미안하다	-11.0791
▁옥상	-11.0791
▁나쁜놈	-11.0792
▁해결해줄	-11.0792
▁보냈습니다	-11.0792
▁예전	-11.0792
▁환장	-11.0792
▁불타오르	-11.0793
▁배워가는	-11.0793
▁끊겼어	-11.0794
▁겁나	-11.0794
▁망함	-11.0794
▁지웠어	-11.0794
▁연애세포	-11.0794
▁최저	-11.0794
▁배울까	-11.0795
▁아이구	-11.0795
▁식단	-11.0796
▁느껴질	-11.0797
▁당사자만	-11.0797
▁심난	-11.0797
▁두분이	-11.0797
▁환상	-11.0797
▁취소	-11.0798
▁12	-11.0799
▁면도기	-11.0799
▁심해지는	-11.0799
▁힘들어도	-11.0799
▁나날이었	-11.08
▁잊혀질까	-11.08
니깐	-11.08
▁말해야	-11.08
▁알바생	-11.0801
▁정리되었길	-11.0801
▁잊어가	-11.0801
▁남녀	-11.0801
▁시린	-11.0803
▁않았을텐데	-11.0803
▁방금	-11.0803
▁바람피	-11.0804
친구	-11.0804
▁부족해	-11.0804
출할	-11.0804
▁담아	-11.0805
▁무난	-11.0805
▁구워	-11.0805
▁털어버	-11.0805
▁화살	-11.0805
▁매정	-11.0806
▁순간들이	-11.0806
▁지각	-11.0808
▁숙취	-11.0811
▁어떡하죠	-11.0812
▁오바	-11.0812
▁보냈네	-11.0812
개월차	-11.0816
▁서울	-11.0816
▁괜찮겠지	-11.0818
▁헤어졌으니까	-11.0819
▁느끼나	-11.082
▁아부	-11.0822
▁원하던	-11.0823
▁답답한가	-11.0825
빛으로	-11.0826
▁맞춰보	-11.0827
▁숙제	-11.0829
▁낫겠	-11.083
▁잘살고	-11.083
▁이별준비	-11.0831
▁필기	-11.0831
▁되려면	-11.0832
▁짜증나네	-11.0833
▁냉면	-11.0834
▁같았나	-11.0835
▁연락왔어	-11.0838
▁보란	-11.0838
▁털어내	-11.084
▁나왔네	-11.0841
▁만져	-11.0841
▁남아있나	-11.0841
▁세월이	-11.0842
생에	-11.0842
▁추스리	-11.0842
쓰담	-11.0842
▁초기	-11.0844
착이	-11.0844
▁찾아오길	-11.0846
로우니	-11.0847
▁죽을거	-11.0847
▁했네	-11.0848
▁내려놓으면	-11.0848
이에	-11.0849
▁없는걸까	-11.0853
주룩	-11.0856
▁사실일	-11.0859
▁괜찮아지길	-11.0859
근데	-11.086
▁칼	-11.0861
▁다녀오	-11.0861
▁여기까지였나	-11.0865
▁마시기	-11.0866
어보	-11.0866
▁영어	-11.0867
▁사무	-11.0867
아리	-11.087
▁한약	-11.087
▁병	-11.0871
▁모르겠지만	-11.0872
▁모르겠다	-11.0873
▁어렵다	-11.0875
▁손이	-11.0875
▁막힌다	-11.0878
▁단어	-11.0879
▁밑	-11.0879
▁비와	-11.0881
▁쫄	-11.0881
▁부끄러	-11.0884
▁않았다면	-11.0885
탔어	-11.0885
▁손톱이	-11.0886
▁맛있어	-11.089
▁헷갈리네	-11.089
▁날짜	-11.0891
▁콕	-11.0892
▁정신과	-11.0894
▁끈을	-11.0894
▁술한잔	-11.0897
▁있는걸까	-11.0897
▁해봤는데	-11.0899
▁좋아지고	-11.0902
▁받았나	-11.0907
준비	-11.0908
▁화가나	-11.0912
▁넘었는데	-11.0913
▁외국어	-11.0914
▁감수	-11.0918
▁그분과	-11.092
▁기운내	-11.0922
▁떠나보내	-11.0924
▁아는거	-11.0927
하던가요	-11.0928
▁비용	-11.0929
▁쟁	-11.093
▁싸울	-11.0932
▁친해	-11.0938
▁공감되	-11.0938
▁젖어	-11.094
▁연상	-11.0947
환해	-11.0947
▁아려	-11.095
▁사줄	-11.0952
▁차라	-11.0953
세우	-11.0955
야겠어	-11.0957
▁힘내라	-11.0959
마음	-11.0961
▁예를	-11.0962
▁헤어졌다	-11.0962
▁놀라	-11.0968
▁나오네	-11.0973
▁연하	-11.0975
▁말하면	-11.0975
▁수능	-11.0976
▁해준	-11.0979
추세	-11.0981
▁해줄까	-11.0984
▁부러	-11.0989
연애였는데	-11.0994
▁잔소리해	-11.1001
▁벌려	-11.1002
▁가능한가	-11.1004
주일	-11.101
▁오니까	-11.1014
것에	-11.1014
▁들을	-11.1015
▁반년	-11.102
▁연락할까	-11.1029
▁누구야	-11.1035
▁지나고	-11.1037
▁간대	-11.1041
▁미팅	-11.1042
▁액	-11.1043
▁비우	-11.1044
▁충	-11.1045
▁가입	-11.1049
▁남자입니다	-11.105
▁처음이라	-11.105
▁누나	-11.1053
▁본인만	-11.1054
▁아파할	-11.1055
▁안받아	-11.1064
▁동생한테	-11.1064
▁덤덤해	-11.1066
▁좋으면서	-11.1066
▁철벽이	-11.107
▁싸우고	-11.1073
▁이별이었	-11.1076
▁뛰어	-11.108
▁남자에게	-11.1081
▁헤어져야하는	-11.1093
해야할지	-11.1093
▁받아줄	-11.1094
▁없습니다	-11.1096
▁어이없	-11.1099
▁좋아졌어	-11.11
▁터질	-11.1101
▁속지	-11.111
▁생겼나봐	-11.1119
했을까	-11.1119
▁소원이	-11.1122
수라	-11.1125
▁공개해	-11.1128
▁살려	-11.1133
자마	-11.1135
▁처음만	-11.1136
▁아프죠	-11.1149
보여	-11.1149
차이	-11.1151
▁냄새나	-11.1151
▁직구	-11.1153
▁기억할	-11.1154
▁싫어할	-11.1159
▁되도	-11.1159
▁운동화	-11.1162
트인	-11.1167
▁무너지	-11.1168
▁내려놓기	-11.1172
일지	-11.1175
▁센	-11.1177
▁운이	-11.1178
▁볶	-11.1181
▁맛있다	-11.1182
일이네	-11.1187
▁심하네	-11.1189
일뿐	-11.1193
만이라	-11.1204
했을	-11.1205
▁변해가는	-11.1222
이럴까	-11.1229
반짝	-11.1233
▁맞는거	-11.1235
▁커지기	-11.1245
▁치우	-11.1255
▁친구인데	-11.1258
▁짝사랑에서	-11.1258
▁없었겠	-11.1259
▁후련	-11.126
▁났	-11.1263
▁지워지	-11.1271
▁배신	-11.1274
▁낭만이	-11.128
▁강요하는	-11.1289
▁받으	-11.1297
▁변하니	-11.1297
▁너랑	-11.1303
이크	-11.1316
표인	-11.1321
되가네	-11.1321
▁기침	-11.1333
▁방향	-11.1335
▁공원	-11.1346
▁풀어주	-11.135
▁깊이	-11.1351
와주	-11.1354
쳤어	-11.1357
▁잊지못	-11.1364
길게	-11.1364
였던	-11.1367
▁공부한	-11.137
▁옳은	-11.1372
▁뭐해	-11.1378
▁정리해야할	-11.1378
▁가려고	-11.1378
너	-11.1389
▁번복	-11.139
▁짰	-11.1391
있을까	-11.1395
한대	-11.1397
▁이상하	-11.1399
▁연락하기	-11.14
▁반복하	-11.1401
순수한	-11.1403
▁잡기	-11.1407
▁언	-11.1421
▁페	-11.1423
▁들려	-11.1424
▁대상이	-11.1431
값이	-11.1441
▁모른척	-11.1444
▁해야겠지	-11.1455
돋을	-11.1457
기면	-11.1461
▁아끼는	-11.1464
기니	-11.148
▁받는다는	-11.1486
▁표현해주	-11.1491
▁척도	-11.1528
동을	-11.1537
▁머	-11.1546
▁오나봐	-11.1555
▁거리	-11.1558
▁사랑이었	-11.1559
잡는	-11.1564
▁연애였	-11.1577
▁여부	-11.1581
▁성숙해	-11.1606
▁행복했	-11.1608
▁응원해주면	-11.1625
했던거	-11.1628
▁끊겼	-11.1629
▁세달	-11.1649
해도될까	-11.1653
해야겠다	-11.1653
▁하러	-11.1662
안보여	-11.1666
돌	-11.1677
▁배려하	-11.1681
졌는데	-11.1683
겼다	-11.1692
▁비오	-11.1694
▁남았어	-11.1695
▁거겠지	-11.1697
▁존중하는	-11.1705
한가봅니다	-11.1722
▁피곤하겠	-11.1725
▁연락오	-11.1728
▁쓰게	-11.1734
물이라	-11.1741
▁끊기	-11.1748
▁그런지	-11.1752
자사람친구	-11.1755
▁먼저하는	-11.1773
▁두려운	-11.1778
▁사람이었어	-11.1778
왔네	-11.1791
안됩니다	-11.1804
온다	-11.181
받았다	-11.1811
▁판	-11.1819
겨울	-11.1823
▁삼가	-11.184
▁무지	-11.1856
▁받아들여야할	-11.1863
▁돌아오기	-11.188
▁연애할	-11.1882
▁도전하	-11.1887
▁있으신	-11.19
▁개인적	-11.1916
적을	-11.192
▁잘라	-11.1928
▁괜찮다가	-11.1931
▁반응해	-11.1941
▁감성	-11.1945
▁부르	-11.1946
▁접은	-11.1953
오늘	-11.196
▁순수	-11.1979
식이	-11.1996
▁짝사랑인	-11.2006
페	-11.2007
▁부여	-11.2016
▁부족하	-11.2021
▁고백한	-11.203
▁잊으려	-11.2039
인이	-11.2068
▁구하는	-11.2076
었지	-11.2082
▁역	-11.2089
▁해야하는	-11.2091
▁어떤건	-11.2093
되니까	-11.21
▁화해	-11.21
▁별로인	-11.2107
야해	-11.2109
▁나니	-11.2119
▁쓸쓸	-11.2124
려지	-11.2128
▁단계라	-11.213
런지	-11.2148
▁필요해보	-11.2168
▁체	-11.2176
▁그런건	-11.2185
▁갑니다	-11.2199
▁괴로	-11.22
▁찾아야	-11.2216
▁살랑	-11.2222
▁이래	-11.2225
다니는	-11.2242
▁그에게	-11.2242
▁할말	-11.2255
싶은데	-11.2256
▁좋아졌	-11.2263
서점에	-11.2266
▁화나	-11.2268
▁그사람이	-11.2271
▁진정하	-11.2281
▁날이네	-11.2311
▁확인하	-11.2318
▁봐야	-11.2339
선의	-11.2397
▁붙잡는	-11.2408
▁몰아	-11.2432
앞이	-11.2435
▁원해	-11.2439
해드리	-11.2451
▁건네	-11.2452
▁안하면	-11.2454
▁복잡해	-11.2459
▁할까요	-11.2459
나의	-11.2472
틀어	-11.249
▁쓸쓸하	-11.2505
▁오늘로	-11.2513
▁로맨틱해	-11.2519
으시는	-11.2523
▁선물해주	-11.2531
▁입는	-11.2533
있나	-11.2537
▁생각했	-11.254
겠대	-11.255
▁나날	-11.2553
▁정상이	-11.2565
▁잔인	-11.2566
▁게임하	-11.2574
▁친해지	-11.2577
▁만들어보	-11.2596
긴다	-11.2627
▁출근하	-11.263
▁싱숭생숭하	-11.264
우선이	-11.2643
▁가득한가	-11.2648
▁챙겨줘	-11.2664
들이지	-11.2668
이지	-11.2675
되었는데	-11.2683
올까	-11.2698
다리	-11.27
▁기억하	-11.2733
이야기	-11.2735
▁나는데	-11.2748
할텐데	-11.2751
시도	-11.2757
▁케	-11.2766
주면	-11.2774
선물	-11.2783
▁불만	-11.2789
랑하는	-11.2802
눈	-11.2803
문이	-11.2803
▁이별할	-11.282
들어도	-11.2825
▁많겠지	-11.2827
▁기한	-11.2827
▁생각났	-11.2829
군	-11.2832
▁그리	-11.2834
▁대리	-11.2837
▁아이돌	-11.2843
▁공허	-11.2866
▁취직하	-11.287
▁자야	-11.2872
▁두려운가	-11.2884
던게	-11.2892
▁깎아야	-11.2897
▁안한	-11.2904
편이	-11.2923
▁힘들만	-11.2945
하셨나	-11.2953
머리	-11.2954
지려고	-11.2957
▁우울하	-11.2958
▁있었지	-11.2965
▁서점	-11.2969
현	-11.2973
만하는	-11.2988
▁노력해야	-11.2998
▁떨면	-11.3
맘	-11.3
▁보자	-11.3014
▁버려야겠	-11.302
▁질린	-11.3034
전이	-11.3045
어져	-11.3045
▁남사친	-11.3053
잘	-11.3059
▁남자의	-11.3063
같아요	-11.3072
생각이	-11.3073
▁전해지	-11.3083
▁속이는	-11.3122
내줄게	-11.3129
안한다	-11.3129
▁준비하느	-11.3144
▁사랑이라는	-11.3149
해줬어	-11.3169
적이	-11.3178
▁예쁘다	-11.3186
노래	-11.3201
▁꿈이었	-11.3208
성이	-11.3208
한가봐	-11.3225
아온	-11.3225
1	-11.3233
거니	-11.324
▁상처받았	-11.3246
▁년	-11.325
때문에	-11.3251
꿈	-11.3255
▁웃어주	-11.3257
▁멀	-11.3259
겼어	-11.3265
고의	-11.3274
▁아쉽지	-11.3299
▁소개해	-11.3311
왔을	-11.3322
▁편안	-11.3332
스타일	-11.3338
▁물이	-11.3338
▁달려	-11.334
▁재밌겠	-11.336
▁까먹었	-11.3369
▁그럴수	-11.3371
표	-11.3371
퍼	-11.3396
나보네	-11.3406
▁인정해야	-11.3408
닫고	-11.3418
▁입어보	-11.342
미	-11.3424
▁벌어	-11.3434
▁좋네	-11.3438
상담	-11.3442
침	-11.3445
만남	-11.3447
▁답답했	-11.3456
왔습니다	-11.3466
나가	-11.3467
▁해야하나	-11.3467
▁각	-11.3469
사진	-11.347
따로	-11.3492
온	-11.3495
6	-11.35
그리고	-11.3501
▁건강하	-11.3507
▁바보라	-11.3513
보이는	-11.3514
시키	-11.3521
완	-11.3521
속에	-11.3525
쪽	-11.3527
육	-11.3537
렀어	-11.3544
쌈	-11.3547
문득	-11.3548
▁잊지마	-11.3554
▁생일이	-11.3556
웠어	-11.3556
▁바람이	-11.3562
뒤	-11.357
커플	-11.3574
롱	-11.358
동물	-11.3581
별의	-11.3585
어주지	-11.3585
싸움	-11.3586
볶	-11.3587
팩	-11.3589
센	-11.3589
됨	-11.3598
향이	-11.3599
▁싸우기	-11.3601
당했어	-11.3601
슬	-11.3607
부려	-11.3608
빵	-11.3613
이상	-11.3614
▁기다리다	-11.3623
▁잡아보	-11.363
▁야	-11.3634
▁시간들	-11.3635
빨	-11.3637
▁궁금하다	-11.3637
▁하는거	-11.3646
▁움	-11.3658
집에서	-11.366
코스	-11.3661
▁너무너무	-11.3688
얘	-11.3691
▁건들	-11.3702
전과	-11.3708
충	-11.3716
▁선택했	-11.3717
▁안맞	-11.3721
▁신고	-11.3724
보니	-11.374
편지	-11.3741
▁깨달	-11.3743
▁해외여행	-11.3746
별이에요	-11.376
고싶다	-11.3773
▁멍청	-11.3776
▁예	-11.3777
들은	-11.3788
되기	-11.3798
▁올리	-11.3814
▁이별중	-11.3815
▁결혼하는	-11.3816
소리	-11.3827
▁들었	-11.3832
▁약인	-11.3837
좋아	-11.3839
으셨	-11.3847
▁생각했을	-11.3849
▁꼼꼼	-11.3861
▁잃	-11.3877
▁할지	-11.389
의해	-11.3908
▁밝	-11.3915
▁카톡할	-11.3917
▁익숙	-11.3925
▁생각들	-11.3925
탈이	-11.3926
싹	-11.3929
▁사랑인	-11.3933
▁남이	-11.3935
▁의미일까	-11.3948
▁생각나기	-11.395
끄러워	-11.3958
라더니	-11.3965
▁왔	-11.3972
하자	-11.3973
드시	-11.3973
▁도망	-11.3996
인사	-11.4001
▁똑	-11.4007
▁변해가	-11.4014
▁적을	-11.4034
▁추스	-11.4038
▁세월	-11.4038
▁질문	-11.4042
이었을까	-11.4043
적으	-11.4046
처	-11.4047
▁상메	-11.4049
▁멈춰	-11.4054
▁말자	-11.4072
들지만	-11.4075
▁겁이	-11.4081
간의	-11.4083
다는데	-11.4084
▁후련하네	-11.4089
▁날까	-11.4096
납	-11.4098
해야겠네	-11.4103
▁한숨	-11.4104
정도	-11.4109
킨	-11.4112
첨	-11.4113
▁잘하니	-11.4114
▁존	-11.4114
끗	-11.4115
시키는	-11.4116
뚝	-11.4116
찢	-11.4116
▁희생	-11.4116
둥	-11.4116
▁깔	-11.4116
낌	-11.4116
뱃	-11.4116
댓	-11.4116
렉	-11.4116
▁롤	-11.4116
▁묻	-11.4116
▁얇	-11.4116
닦	-11.4116
왓	-11.4116
▁CC	-11.4116
▁공휴일에	-11.4116
▁괘씸하	-11.4116
▁대리효도	-11.4116
▁돌아섰	-11.4116
▁두근두근	-11.4116
▁드레스	-11.4116
▁떴	-11.4116
▁묘	-11.4116
▁밑바닥	-11.4116
▁버텼	-11.4116
▁부딪혀	-11.4116
▁불륜	-11.4116
▁비혼주의	-11.4116
▁소극적	-11.4116
▁스몰웨딩	-11.4116
▁아날로그	-11.4116
▁앱	-11.4116
▁예식장	-11.4116
▁턱	-11.4116
▁하객	-11.4116
▁혼란스러워	-11.4116
▁황당하	-11.4116
▁히스테리	-11.4116
넋	-11.4116
닷	-11.4116
됬네	-11.4116
땜	-11.4116
샜	-11.4116
엉엉	-11.4116
웁	-11.4116
젤	-11.4116
짼데	-11.4116
▁옛	-11.4116
▁창피해	-11.4116
▁혼인신고	-11.4116
▁심쿵	-11.4116
▁홧	-11.4116
녔	-11.4116
▁가르쳐	-11.4116
▁탄생	-11.4116
▁북받쳐	-11.4116
▁죄송해	-11.4116
▁근황	-11.4116
▁댄디	-11.4116
▁진부한	-11.4116
오른다	-11.4116
▁왔다갔다	-11.4116
▁메시지	-11.4116
▁투잡	-11.4116
▁도저히	-11.4116
▁존경	-11.4116
▁으으	-11.4117
▁배불러	-11.4117
▁씨씨	-11.4117
▁렌즈	-11.4117
▁세탁	-11.4117
▁텅비	-11.4117
▁공황	-11.4117
▁땡긴다	-11.4117
▁자극이	-11.4117
▁창문	-11.4117
▁베란다	-11.4117
▁시간낭비인	-11.4117
블루	-11.4117
▁동아리에	-11.4117
▁탄다	-11.4117
▁답변	-11.4117
▁팔찌	-11.4117
▁주눅들	-11.4117
▁타입인	-11.4117
▁갱신	-11.4117
▁애써봐	-11.4117
▁소홀	-11.4117
▁서핑	-11.4117
▁구썸남	-11.4117
▁언제부터인지	-11.4117
▁경제력	-11.4117
▁무뎌져	-11.4117
▁대부분	-11.4117
▁스노	-11.4117
▁비오는날	-11.4117
▁노잼	-11.4117
▁수십번	-11.4118
킬	-11.4118
▁매순간	-11.4118
▁떨어짐	-11.4118
울컥	-11.4118
▁강해지	-11.4118
▁동성애	-11.4118
▁친군	-11.4118
▁일반적이	-11.4118
▁발등	-11.4118
▁태어났을까	-11.4118
▁복합적	-11.4118
▁짜증남	-11.4118
▁빌릴까	-11.4118
▁힘이드네	-11.4118
▁사치인	-11.4118
▁뒤숭숭하네	-11.4118
▁어울릴	-11.4119
▁명언	-11.4119
▁도와준	-11.4119
▁기뻐해	-11.4119
▁지옥이네	-11.4119
합시다	-11.4119
▁미안하대	-11.4119
국물	-11.4119
▁어째서	-11.4119
▁오랜연애	-11.4119
▁구남친	-11.4119
▁갈등	-11.4119
▁무뎌진	-11.4119
▁백수	-11.4119
▁봤습니다	-11.4119
▁예랑이	-11.4119
▁감추는	-11.4119
▁혼밥	-11.412
▁이별하신	-11.412
▁처방	-11.412
▁잘생겨	-11.412
았더니	-11.412
▁스케	-11.412
▁올랐어	-11.412
▁잊어버려	-11.412
▁잊어야한다는	-11.412
▁환심	-11.4121
▁무덤덤한데	-11.4121
▁영화보러	-11.4121
▁성급	-11.4121
▁갈궈	-11.4121
▁어울릴까	-11.4122
▁덤덤하게	-11.4122
▁공복이	-11.4122
▁여행지에서	-11.4122
▁회복되	-11.4122
▁구걸하	-11.4122
▁예민해져	-11.4122
▁먹먹	-11.4123
▁주체할	-11.4123
▁깨짐	-11.4123
▁누워	-11.4123
▁휴우	-11.4124
잔치	-11.4124
▁솔직했으면	-11.4124
▁무색해지네	-11.4124
▁무너졌어	-11.4124
▁걸어다니	-11.4124
▁숨막히	-11.4124
▁촉이	-11.4124
▁탓인지	-11.4125
▁쪼금	-11.4125
▁미끄러질	-11.4125
▁11	-11.4126
▁씌었나봐	-11.4126
▁아른거	-11.4126
▁유료	-11.4126
▁헷갈려	-11.4126
▁배워볼까	-11.4126
더군	-11.4127
▁대학원	-11.4127
▁지워버리	-11.4127
▁꼬셔	-11.4127
▁냉정할	-11.4128
▁바꿔볼까	-11.4128
▁정신병	-11.4128
▁보인다	-11.4129
▁꼬시지	-11.4129
▁정리했습니다	-11.4129
▁돌아올까	-11.4129
▁돌아다니	-11.4129
▁다가가야	-11.4129
▁고백했다	-11.4129
▁가혹	-11.413
▁다닐까	-11.413
▁찍었네	-11.4132
▁인간적	-11.4132
▁비추	-11.4132
▁결혼생활	-11.4132
▁아까운	-11.4132
▁쌓아	-11.4133
▁까먹었어	-11.4133
▁술자리	-11.4133
▁연락했습니다	-11.4135
▁서글	-11.4135
▁바나나	-11.4135
▁정량	-11.4135
▁눈빛	-11.4136
▁그립지만	-11.4136
▁심란	-11.4136
▁생일선물	-11.4137
▁잘해준	-11.4137
▁아플까	-11.4138
▁떨어진	-11.4138
▁골인	-11.414
▁재회했는데	-11.414
탈까	-11.414
▁해외	-11.4141
▁무리일까	-11.4141
▁사회에서	-11.4142
▁돌봐	-11.4142
▁한달반	-11.4142
▁선에	-11.4144
▁주차장	-11.4145
▁식었어	-11.4145
▁전학가	-11.4145
▁보고파	-11.4146
▁부팅	-11.4146
▁오후	-11.4146
▁퇴근길	-11.4147
▁쓰디	-11.4148
▁일주일이네	-11.4148
▁과제	-11.4148
▁되어가네	-11.4149
▁돌아간	-11.4149
▁퇴근길에	-11.4149
겟죠	-11.415
▁지키기	-11.415
▁사랑했다는	-11.4152
▁붙어	-11.4152
▁바닥	-11.4152
방비	-11.4153
▁소용	-11.4153
액션	-11.4153
정적	-11.4155
▁잘못한	-11.4155
▁씹어	-11.4156
▁심심하다고	-11.4157
▁지쳤어	-11.4157
▁다갔어	-11.4157
▁장난인지	-11.4158
▁치마	-11.4158
▁가고싶다	-11.4161
▁연락오네	-11.4162
웠으면	-11.4163
▁해봤어요	-11.4164
▁밀려오	-11.4165
▁한달만에	-11.4167
▁안오지	-11.4167
▁살았는데	-11.4168
▁끈	-11.4169
▁부질없는	-11.4171
▁깨지고	-11.4171
▁잊자	-11.4172
▁호구	-11.4173
▁자식	-11.4173
허허	-11.4173
▁엇갈리	-11.4176
▁모자	-11.4177
▁누구냐	-11.4181
게되네	-11.4184
▁판단하지	-11.4184
▁예쁜데	-11.4184
버리네	-11.4184
오르네	-11.4184
▁약이라는	-11.4185
된다	-11.4186
▁아물어	-11.4186
▁싫어져	-11.4188
▁커플여행	-11.4189
▁심남	-11.4191
▁미운	-11.4191
느껴진다	-11.4191
▁매달려	-11.4192
▁약점	-11.4193
▁무섭네	-11.4193
▁상메에	-11.4195
▁먹었나봐	-11.4195
▁없어졌으면	-11.4196
▁한달째	-11.4196
▁말로만	-11.4198
▁물건들	-11.42
이브	-11.4203
▁느끼게	-11.4204
▁정치	-11.4205
▁사랑이였	-11.4207
▁어디가지	-11.4208
▁그런거지	-11.421
▁출근길	-11.4213
▁상처들	-11.4215
섭섭하	-11.4216
▁안되겠지만	-11.4216
▁무섭다	-11.4217
▁다른일	-11.4217
▁보임	-11.4219
▁어색해졌어	-11.4221
▁누락됐	-11.4222
▁서운한	-11.4223
간당	-11.4223
▁순간에	-11.4224
▁수학여행가	-11.4226
▁괴롭다	-11.423
▁다되어가네	-11.423
▁잊혀져가	-11.4233
▁허기	-11.4234
▁얘기하지	-11.4236
▁이러고	-11.4237
▁안되겠죠	-11.4239
▁역시나	-11.4239
▁수순	-11.4242
▁연애하다	-11.4243
▁정리하려고	-11.4247
이었는데	-11.4248
참아왔	-11.4249
▁그대로인	-11.425
▁감당이	-11.4251
▁미안함	-11.4254
▁쭉	-11.4254
▁흠	-11.4254
▁떼	-11.4254
성적이	-11.4255
▁부모	-11.4257
▁무색하게	-11.4258
▁서툴어	-11.4258
▁버리기	-11.4261
▁일이네	-11.4263
▁총회	-11.4264
▁자금	-11.4264
▁불쑥	-11.4265
▁꾸미	-11.4265
▁걸었어	-11.4265
▁계신	-11.4266
▁한마디	-11.4267
▁못하나봐	-11.4268
▁김치	-11.4269
▁바라보	-11.4272
▁온다면	-11.4275
▁높이	-11.4276
▁동거하다	-11.4278
시간에	-11.4279
▁자유로워질까	-11.4279
▁생생한	-11.4281
▁끊어야	-11.4284
▁아니었어	-11.4286
▁죽겠다	-11.4289
▁술이야	-11.4291
▁휘둘리	-11.4294
▁떨어지지	-11.4299
▁문화	-11.43
▁받네	-11.4301
▁지났는데	-11.4302
▁끈이었	-11.4304
▁없었나봐	-11.4306
▁연기	-11.4306
지우	-11.431
▁둔한	-11.4317
▁피곤할	-11.432
▁입을까	-11.4321
▁고민이네	-11.4324
것은	-11.4324
▁끝이라고	-11.4325
▁아깝다	-11.433
▁나갈까	-11.4341
▁지옥같	-11.4342
▁수수한	-11.4344
▁살릴	-11.4345
▁구해야	-11.4346
▁사귀는데	-11.4351
▁멀어	-11.4366
▁깨진	-11.4366
▁됐습니다	-11.4368
화가나네	-11.4375
▁사랑스럽	-11.4378
▁잘되고	-11.438
▁뭐지	-11.4381
▁신청해	-11.4382
▁만나기	-11.4389
▁대신	-11.439
▁씻어	-11.4391
▁좋겠습니다	-11.4391
민가	-11.4397
▁생각일까	-11.4398
▁잘해줘서	-11.4398
▁것이겠죠	-11.441
▁답답해서	-11.441
▁농구하	-11.4414
▁춥고	-11.442
▁남자와	-11.4425
▁응원해주	-11.4425
▁탈출	-11.4428
▁힘드나	-11.4428
▁못할까	-11.4428
▁내맘같	-11.4433
▁너와	-11.4437
▁걱정하	-11.4447
▁침	-11.4454
네ᅮ	-11.4455
▁다정	-11.4459
▁심정	-11.446
▁툭	-11.446
▁이상하지	-11.4464
▁회	-11.4467
▁소개받	-11.4468
지는것	-11.4468
▁버림	-11.4472
▁귀찮게	-11.4476
▁딸까	-11.448
▁같기도	-11.4487
할지	-11.4491
▁봤으면	-11.4494
▁복전	-11.4495
▁썸타다	-11.45
▁연습하	-11.4504
▁사귀면서	-11.4509
▁카톡하지	-11.451
▁덜해	-11.4519
▁싫어할까	-11.4524
▁답답하겠	-11.4533
▁지웠	-11.4542
▁쓰다	-11.4551
졌나봐	-11.4552
▁구질	-11.4553
▁저주	-11.4554
▁돌아오는	-11.4556
▁것일까	-11.4556
▁남이죠	-11.4558
▁않겠지	-11.4559
▁긴장하	-11.4561
▁넘어	-11.4568
▁보수적이	-11.4572
로그	-11.4573
했겠	-11.4577
▁책보	-11.4579
▁이별인가봐	-11.4582
▁예정	-11.4582
▁둬	-11.4583
▁오래가	-11.4592
▁하려면	-11.4594
▁비참해	-11.4596
말걸	-11.4597
▁만나러가	-11.4607
냈	-11.4615
▁줄이고	-11.4616
느리	-11.462
했었는데	-11.4621
▁힘들대	-11.4629
한게	-11.4631
▁잡는다	-11.4639
▁중독인	-11.4645
▁마라	-11.4653
▁팩	-11.4673
▁단순하	-11.4684
이다	-11.4686
물이	-11.4689
▁골랐	-11.469
▁애인이	-11.4692
▁흘렸	-11.4703
▁투자하는	-11.4704
▁너무하네	-11.4708
▁받아들여요	-11.4713
▁잊었다	-11.4721
▁무서	-11.4723
돌이	-11.4724
▁혼나	-11.4729
▁가라	-11.4735
▁필요없어	-11.4743
하냐	-11.4747
....	-11.475
~~~	-11.4751
▁음악이	-11.4752
▁만들어주	-11.4754
하겠	-11.4763
▁썸인가요	-11.4764
▁했었	-11.4769
▁울적하	-11.477
었지만	-11.4771
▁이야기는	-11.4773
▁답답하	-11.4777
▁경험해보	-11.4787
▁모르나봐	-11.4802
▁짝사랑일	-11.481
▁무리하	-11.4814
▁보는데	-11.4817
▁정리하려	-11.4826
▁아파서	-11.4829
▁저장할	-11.483
주의	-11.4832
▁먹나	-11.4833
▁휴학	-11.4833
▁줬다	-11.4844
인과	-11.4856
어볼까	-11.4866
▁먹어보	-11.487
해졌나봐	-11.4885
▁투	-11.4886
▁줘야	-11.4901
▁생겼는	-11.4901
▁리액션	-11.4921
▁운명같	-11.4922
▁생각한다	-11.4927
▁사귄지	-11.4937
▁이상한가	-11.4942
시려	-11.4949
던데	-11.4974
▁해보려	-11.4978
▁익숙해졌	-11.4982
▁나이들	-11.4982
▁제길	-11.4987
▁세포	-11.4991
▁다른데	-11.4994
▁불금이	-11.4996
▁낸다	-11.4997
▁놔주	-11.4998
▁지쳐가	-11.5002
▁자다	-11.5005
▁갠톡	-11.5009
▁진지한	-11.5013
▁비만	-11.5015
▁머리로	-11.5026
년하고	-11.503
▁웃기	-11.505
▁썼다	-11.5051
한걸까	-11.5072
▁가시	-11.5074
▁욕하는	-11.508
▁추우니	-11.5084
▁안좋아	-11.5085
▁다했다	-11.5088
▁사랑했어	-11.5095
▁새장	-11.5099
▁산다	-11.5099
길래	-11.5106
▁넘었	-11.5107
▁차렸을	-11.5111
▁전부였	-11.5111
▁내려놓	-11.5112
어졌어	-11.5118
▁거절인	-11.5119
▁소심	-11.5144
▁없다는	-11.5145
▁면	-11.5146
▁타면	-11.5147
▁해줬으면	-11.5152
▁감정적	-11.5157
▁잘된	-11.5186
▁싶으	-11.5196
▁뜻밖	-11.521
▁반이라	-11.5219
▁나가지	-11.5222
▁위로받	-11.5224
▁그리워지	-11.5224
사이	-11.5236
로운	-11.5237
▁제자리걸음	-11.5245
▁까먹지	-11.5253
▁척하	-11.5254
▁때문일까	-11.5257
▁구하	-11.5258
▁즐겨	-11.5258
화가	-11.5267
▁생각난다	-11.5276
▁기네	-11.5277
▁어렵겠지	-11.5278
▁모르지	-11.5285
▁그런거	-11.5293
▁망설여지	-11.5296
민	-11.5304
셨을	-11.532
▁후련하다	-11.5329
해버렸네	-11.5331
하는걸	-11.5342
▁질려하	-11.5344
▁만큼만	-11.5365
올랐다	-11.5368
▁에이	-11.5371
▁구경	-11.5372
▁놀러갈	-11.5374
학번	-11.541
신청	-11.5421
▁힘드신	-11.5425
오지마	-11.5431
▁간에	-11.5455
▁넘은	-11.5465
잡으려고	-11.5465
다니기	-11.5467
어버리	-11.5478
▁가슴은	-11.5484
▁해주	-11.5494
▁잊어야해	-11.5502
▁본다	-11.5508
▁바람난	-11.5516
▁시간이었겠	-11.5518
▁고집	-11.5521
▁다니면	-11.553
▁지우려	-11.553
보이	-11.5532
달만에	-11.5533
▁보고싶어요	-11.5539
▁아니였	-11.5542
어지지	-11.5573
▁집앞	-11.5578
▁병신	-11.5585
그여자	-11.5589
▁가수	-11.5601
▁힘든거	-11.5604
▁동기	-11.5604
낸	-11.5605
어진다	-11.5606
▁귀엽다	-11.5609
학원	-11.5622
▁봐봐	-11.5629
▁멍청한	-11.5641
▁꿈이라	-11.5643
천하	-11.5648
▁출	-11.5656
▁반복될까	-11.5662
▁껴	-11.5663
▁욕을	-11.5668
▁정으로	-11.5668
이었나	-11.5679
못	-11.5688
▁만족해	-11.5694
하려면	-11.5704
▁군대가	-11.5706
적하지	-11.5742
▁변할까	-11.5756
▁쪄	-11.5764
▁한편	-11.5774
해줬	-11.578
끌리	-11.5792
▁멋있는	-11.5798
뻔	-11.5815
▁필요하다	-11.5832
로워	-11.5834
▁생각했나	-11.5867
▁찾아가보	-11.5884
했잖아	-11.5894
받아	-11.5898
▁상처에	-11.5901
▁되는건	-11.5924
▁철벽치는	-11.5927
버렸네	-11.5931
▁준다	-11.5935
여친이	-11.5938
▁치맥	-11.5962
▁결국은	-11.5972
해진	-11.5978
▁연애중인	-11.5994
고파	-11.5998
▁했을까	-11.5999
끈	-11.6
▁장기	-11.6003
보려구	-11.6014
말은	-11.6018
▁싶어지	-11.6022
▁죽겠	-11.6022
▁기다리게	-11.6023
▁왕	-11.6029
▁안해서	-11.6042
그런	-11.605
▁식상	-11.6053
인줄	-11.6085
해야할듯	-11.6087
자이	-11.6096
주려고	-11.6112
생인데	-11.6118
사랑	-11.612
▁행동을	-11.6126
되가는데	-11.6127
▁틀어	-11.6139
▁여행가는	-11.6139
▁어떻해	-11.6147
돼요	-11.617
중한	-11.6172
▁극	-11.6174
▁사랑하는건	-11.6181
▁다되가	-11.6183
대하면	-11.6188
▁만납	-11.6189
하겠어	-11.62
타는	-11.6212
▁번이	-11.6215
▁후련할거	-11.6226
▁쌓이	-11.6231
었다는	-11.6243
있죠	-11.6247
지우는게	-11.6254
▁바쁘네	-11.6254
해보는	-11.6256
▁허락	-11.6265
▁줬으면	-11.6267
오려나	-11.6276
아지길	-11.628
월해	-11.6281
▁전화해	-11.6287
랐	-11.6297
집에	-11.6301
▁되버렸	-11.6306
겼나봐	-11.6309
해지는	-11.6321
챙겼	-11.6322
▁돼지	-11.6336
▁높이는	-11.6344
▁남았나	-11.6358
▁밤이네	-11.6377
▁지속	-11.6382
▁적절	-11.6383
▁모임에	-11.6396
▁영화보	-11.6405
▁서점에	-11.6405
움에	-11.6411
지금	-11.6411
다시	-11.6412
해주면	-11.6412
▁너그	-11.6424
할까요	-11.6435
▁좋아보여	-11.6436
▁죽었	-11.6436
▁헬스장	-11.6439
▁첫이별	-11.6446
▁극복한	-11.6446
▁마주보	-11.6461
▁괴	-11.6465
▁알았다	-11.6477
▁편식	-11.6477
상했	-11.6495
났네	-11.6503
▁도와주세	-11.6513
어지고	-11.6519
▁일이었	-11.6519
▁지우지	-11.6522
▁힘들일이	-11.6528
해보시는	-11.6531
버렸습니다	-11.6534
▁보였	-11.655
여자친구	-11.6556
▁쓰이겠	-11.6585
▁안가	-11.659
착	-11.6611
▁떠나요	-11.6619
▁보시	-11.6645
줬	-11.6647
▁급해	-11.6654
▁타나봐	-11.6655
▁찍었	-11.6661
▁만들까	-11.6662
▁어디가	-11.6664
▁끝이났	-11.6671
▁습관이라	-11.6693
▁애인	-11.6694
▁반장이	-11.6702
기에	-11.6705
기예	-11.671
▁힘든건	-11.671
▁간사	-11.6711
▁내려놓는	-11.6731
라네	-11.6758
▁좋아했	-11.6759
▁감성적	-11.6768
▁감사해	-11.6795
▁존재하	-11.681
▁헤어지자네	-11.6812
해야하나	-11.685
▁갔을	-11.6852
▁안고	-11.6858
▁연애중	-11.6875
▁뭐였	-11.6888
▁보름달	-11.6897
소식을	-11.69
▁못했는	-11.6956
어이가	-11.6967
▁길에	-11.6974
▁풀었	-11.698
▁없어졌	-11.6997
▁반복될	-11.7018
▁알바하면	-11.7022
겟	-11.7032
내보세요	-11.7037
▁떨리네	-11.7044
▁구별	-11.7045
워요	-11.7059
▁지독	-11.706
▁착하	-11.7064
▁절친	-11.7064
▁헤어지고나	-11.7066
맞는다면	-11.707
▁어색	-11.7084
▁기대하면	-11.7088
달라는	-11.7113
진짜	-11.7115
▁잘했	-11.7117
두는	-11.7123
붙	-11.7127
▁교회에	-11.7128
▁못하니	-11.7128
▁생각해봐	-11.7133
▁우정이	-11.7144
▁비가오	-11.7157
▁미워하	-11.7167
▁왜이	-11.7169
▁복잡하네	-11.7173
끝이네	-11.7175
으려고	-11.7178
▁물리	-11.7206
▁지키는	-11.7211
난거	-11.7218
▁몰랐네	-11.7232
거울	-11.7232
늘	-11.7239
▁필요없	-11.7247
유발	-11.7285
체가	-11.7286
았다	-11.7291
▁말들	-11.7296
▁저만	-11.7301
해하지	-11.7307
▁집앞에	-11.7311
입	-11.7321
껴	-11.7337
무슨	-11.7358
▁성숙	-11.7386
▁그러니	-11.7404
▁끊기는	-11.7405
▁방법이겠	-11.7413
자리	-11.7422
감정	-11.7432
야하는	-11.7435
▁말라	-11.7435
여의	-11.7454
▁망설여지는	-11.7468
▁비워	-11.7477
그런건가	-11.7484
▁운동하자	-11.7498
▁힘들기	-11.75
▁멍청하	-11.7506
르겠지만	-11.7526
시겠	-11.7528
▁함께하	-11.7531
▁거는	-11.7538
▁결정했	-11.7546
▁허무하	-11.7548
▁공시생	-11.7549
손잡	-11.7556
▁추억들	-11.7557
▁밤이	-11.7568
열	-11.7573
하고싶다	-11.7576
▁놓아보	-11.76
고민	-11.7605
끝	-11.7615
▁지나갔네	-11.7633
이였어	-11.7636
으신	-11.766
는대로	-11.768
많이	-11.7682
▁났어	-11.7686
내일	-11.7691
▁익숙해	-11.7696
따	-11.7701
상하지	-11.7702
▁잊어볼	-11.7705
▁어디에	-11.772
▁아끼	-11.7762
▁운	-11.7764
문제	-11.7766
같지	-11.7772
▁엉	-11.7773
▁선택하	-11.7774
당히	-11.7776
▁말해본	-11.7777
▁든다	-11.7794
▁비교	-11.7811
이라서	-11.7816
쉬	-11.7821
떡	-11.7831
▁아침이에	-11.7837
▁불금	-11.7852
▁적당	-11.7874
▁임	-11.7877
모두	-11.7884
▁났나	-11.7889
생	-11.7894
▁거래	-11.79
경	-11.7905
키	-11.791
▁사랑해줘	-11.7913
려서	-11.7914
결정	-11.792
진지	-11.792
▁들어주	-11.7922
생각입니다	-11.7922
▁리액션해	-11.7925
보낼	-11.7926
속	-11.7929
▁추억을	-11.7931
없네	-11.7948
연해	-11.7956
안돼	-11.7957
▁느끼	-11.7967
▁이야기하	-11.7971
느	-11.7982
늦	-11.8008
업	-11.8029
▁보았	-11.8035
▁이상이	-11.8076
좋을까	-11.8079
영화	-11.8086
벽	-11.8105
▁쉽지않	-11.8107
▁여행가고	-11.8113
아파	-11.8125
▁연락올	-11.8135
이와	-11.8141
▁않을거	-11.8153
딱	-11.8153
▁대상	-11.8161
후폭풍	-11.8173
사정	-11.8176
▁조금이	-11.8177
▁재회하고	-11.8183
▁많았겠	-11.8183
▁지지	-11.8192
▁묻어두	-11.8192
서도	-11.8193
했습니다	-11.82
▁썸에	-11.82
백한다	-11.8217
▁불안	-11.822
▁할때	-11.8222
이시군요	-11.825
▁않으	-11.8251
▁있었겠	-11.8257
해가는	-11.8257
떨	-11.8261
쳤나	-11.8286
▁것에	-11.8291
차단	-11.8295
현상	-11.8296
혔어	-11.8296
▁해로	-11.8297
경우	-11.8298
덤덤해졌	-11.8301
▁그만둬	-11.8302
다를	-11.831
위로	-11.8313
설레	-11.8317
안됐네	-11.8327
▁말해줄	-11.8331
쇼핑	-11.8352
▁아들	-11.8353
▁브	-11.8354
생각	-11.8365
맨날	-11.8369
싸	-11.8378
조절	-11.8379
지못한	-11.8381
들었어	-11.8389
등	-11.8395
온대	-11.8401
하우스	-11.8406
견	-11.841
다녀야	-11.841
중인	-11.8413
쥐	-11.8414
편할	-11.8418
문자	-11.8423
직구	-11.8427
어진	-11.8438
블	-11.8443
빼	-11.8458
시기	-11.8459
됐	-11.846
찌	-11.8465
▁보듬어	-11.8471
창이	-11.8472
악	-11.8475
기름	-11.8476
▁과에	-11.8488
남보다	-11.8488
생각나네	-11.849
액	-11.8491
휴	-11.8492
촬영	-11.8511
▁것인가	-11.8511
기울이	-11.8511
키스	-11.8512
가고	-11.8513
▁곁	-11.8513
쓸	-11.8514
빌려	-11.8516
셔야죠	-11.8517
▁풀렸다	-11.8517
▁답인	-11.8519
▁구멍	-11.8521
▁속시원	-11.8524
들어가	-11.8524
쓴	-11.8532
노래방	-11.8535
빙	-11.8537
차례	-11.8537
▁아니었나봐	-11.8538
동생한테	-11.8542
되셨	-11.8542
뿌	-11.8547
패	-11.8548
케이스	-11.8549
사귄	-11.8552
끝났네	-11.8555
버려야지	-11.8563
땅	-11.8569
▁매달	-11.857
▁싸움이	-11.857
잇	-11.857
읽씹	-11.857
미팅	-11.8571
넌	-11.8576
아플	-11.8576
버림	-11.8578
쏟아	-11.8578
툭	-11.8578
밀	-11.8584
▁변할	-11.8589
되었나	-11.859
있네	-11.8594
찼	-11.8595
학생	-11.8597
봤으면	-11.8598
간대	-11.8605
▁부담스러워할	-11.861
털	-11.8616
탈출	-11.8621
반복	-11.8621
내릴	-11.8627
골	-11.863
과일	-11.8632
태	-11.8632
▁물어볼	-11.8643
러기	-11.8644
▁잔소리	-11.8645
▁대쉬	-11.8648
잘라	-11.865
낫네	-11.8664
▁미안하	-11.8669
꿨	-11.8669
워보	-11.8673
주차	-11.8675
시작이	-11.8676
구질	-11.8679
▁공허함	-11.8686
스타일이	-11.869
▁내길	-11.8697
▁무기력하	-11.8699
오르	-11.8703
시켜야	-11.8705
못하겠어	-11.8709
타일러	-11.8713
▁얼어	-11.8727
▁잘생겼	-11.8733
▁않다	-11.8738
비에	-11.8743
심장	-11.8744
있다	-11.8748
▁매력적	-11.8749
▁전여친이	-11.875
▁복전하	-11.8753
심리	-11.8753
▁현금	-11.8794
순간에	-11.8802
원해	-11.8813
▁우는	-11.8815
차렸을	-11.8821
▁싫어해	-11.8827
명인데	-11.8831
녀와	-11.8833
▁휘둘	-11.8834
▁느낀	-11.8836
▁그렇다는	-11.8847
나긴	-11.885
마셔	-11.8852
증이	-11.8861
밀어	-11.8862
▁생생	-11.8863
▁운명인	-11.8864
▁날도	-11.8867
▁자유로워질	-11.8867
▁오해하	-11.8884
▁나약하	-11.8884
갔네	-11.8888
자랑	-11.8889
받아봤	-11.8899
기네	-11.8917
방에	-11.892
올거	-11.8925
▁40	-11.8928
젠	-11.8929
먹은	-11.8929
리나요	-11.8929
▁잊혀져	-11.8931
타오를	-11.8936
▁수학여행	-11.894
정적이	-11.894
▁밉	-11.8941
여주고	-11.8949
폭풍	-11.8953
▁반가워	-11.8953
▁섭섭	-11.8956
▁미화되	-11.8959
루	-11.8964
▁늙어	-11.8966
▁정상인	-11.8967
살랑	-11.8978
▁전화하고	-11.8978
쓰는	-11.8981
▁연락오는	-11.8993
▁약속잡	-11.8997
▁아쉬움	-11.8998
▁비비	-11.9005
내리겠	-11.9007
▁확	-11.901
▁먹여주	-11.9012
인다	-11.9012
가입	-11.9019
▁갖는	-11.902
거겠지	-11.9024
지옥	-11.9028
▁머릿	-11.9028
▁부질없	-11.903
▁착잡	-11.9032
▁스타	-11.9034
맥	-11.9034
▁성덕	-11.9039
십	-11.9046
▁어떠	-11.9047
못된	-11.9052
▁심심하다	-11.9055
▁싫어하나	-11.9063
립	-11.9068
근한	-11.9081
▁후회되	-11.9083
▁당사자	-11.9085
환	-11.9091
▁불효	-11.9093
혹	-11.9094
▁정리되었	-11.9099
딛	-11.9101
쁠	-11.9102
▁늙	-11.9103
▁채워보	-11.9103
▁무색해	-11.9104
▁희	-11.9106
▁씌었	-11.9107
빴	-11.9109
뜰	-11.911
깝	-11.911
사갈	-11.9111
험해	-11.9114
닿	-11.9114
▁엮	-11.9114
▁끓	-11.9114
쩌	-11.9114
쑥	-11.9115
앗	-11.9115
탄	-11.9116
▁가라앉	-11.9116
▁컴	-11.9116
텔	-11.9116
▁겉	-11.9116
▁렌	-11.9116
익	-11.9116
▁비행기	-11.9116
;	-11.9116
넥	-11.9116
긍	-11.9116
▁쌍	-11.9116
깅	-11.9116
흡	-11.9116
▁낙엽	-11.9116
▁뽀뽀	-11.9116
%	-11.9116
O	-11.9116
P	-11.9116
c	-11.9116
▁감정컨트롤	-11.9116
▁건강검진	-11.9116
▁관절염	-11.9116
▁교직이수	-11.9116
▁금사빠	-11.9116
▁기획사	-11.9116
▁김치볶음밥	-11.9116
▁깬	-11.9116
▁깼	-11.9116
▁꼴	-11.9116
▁나쁨	-11.9116
▁날카로워	-11.9116
▁노처녀	-11.9116
▁논문	-11.9116
▁덮	-11.9116
▁돌싱	-11.9116
▁동문서답	-11.9116
▁들이댔	-11.9116
▁들켰	-11.9116
▁무뚝뚝해	-11.9116
▁블랙박스	-11.9116
▁상견례	-11.9116
▁소풍	-11.9116
▁실험실	-11.9116
▁애매모호	-11.9116
▁웨딩	-11.9116
▁웨딩드레스	-11.9116
▁재택근무	-11.9116
▁전기장판	-11.9116
▁주저리주저리	-11.9116
▁중소기업	-11.9116
▁지겹	-11.9116
▁찾아갔습니다	-11.9116
▁춘곤증인가	-11.9116
▁취뽀	-11.9116
▁켠	-11.9116
▁클스마스	-11.9116
▁포근포근	-11.9116
▁폰겜	-11.9116
▁피어싱	-11.9116
▁헌팅	-11.9116
▁험담	-11.9116
▁헤헤	-11.9116
▁호박씨	-11.9116
▁황당해	-11.9116
▁훈	-11.9116
갯	-11.9116
걍	-11.9116
굽	-11.9116
꽂	-11.9116
꿎	-11.9116
넛	-11.9116
넹	-11.9116
늪	-11.9116
닭	-11.9116
덩	-11.9116
덴	-11.9116
뎠	-11.9116
딨	-11.9116
뗄	-11.9116
뜁	-11.9116
메이크업	-11.9116
뽀송	-11.9116
징글	-11.9116
층	-11.9116
탐	-11.9116
템	-11.9116
▁사투리	-11.9116
▁식욕폭발	-11.9116
▁쥐꼬리	-11.9116
▁깐깐	-11.9116
▁깜깜	-11.9116
▁모태솔로	-11.9116
▁반배정	-11.9116
▁빡빡	-11.9116
▁쌍커풀	-11.9116
▁정동진	-11.9116
▁조명빨	-11.9116
▁탄탄	-11.9116
▁텁텁	-11.9116
▁해결방안	-11.9116
▁화풀이	-11.9116
▁거슬려	-11.9116
▁고구마	-11.9116
D	-11.9116
ᄎ	-11.9116
▁으악	-11.9116
듀	-11.9116
뚱	-11.9116
띰	-11.9116
버렸나	-11.9116
;;	-11.9116
▁입소문	-11.9116
▁조교하면	-11.9116
▁황사	-11.9116
▁술주정	-11.9116
▁스킨쉽	-11.9116
▁토닥	-11.9116
▁댓글	-11.9116
▁넘어질뻔	-11.9116
▁식도염	-11.9116
▁콕콕	-11.9116
▁견딜	-11.9116
▁카풀	-11.9116
▁태몽	-11.9116
▁처량하	-11.9116
▁쳐다봄	-11.9116
▁헤어졋	-11.9117
▁허무해	-11.9117
▁감미로	-11.9117
▁뻔뻔	-11.9117
▁체육	-11.9117
하소연	-11.9117
걸레질	-11.9117
▁멀미	-11.9117
▁문콕	-11.9117
▁호텔	-11.9117
▁폭식	-11.9117
▁엊그	-11.9117
▁서먹해	-11.9117
▁핸드	-11.9117
▁문화센터	-11.9117
▁유세부	-11.9117
▁대리님	-11.9117
▁출국	-11.9117
▁어장관리	-11.9117
▁팔뚝	-11.9117
▁개당황	-11.9117
▁영화보재	-11.9117
▁쪽팔	-11.9117
▁퇴사	-11.9117
▁눌러	-11.9117
▁스킨	-11.9117
▁뜬금	-11.9117
▁폭식증	-11.9117
▁쓸모	-11.9118
▁슈퍼문이	-11.9118
▁애키우	-11.9118
▁주저리	-11.9118
▁짜증난다	-11.9118
▁담담하	-11.9118
▁초조해	-11.9118
▁독학하	-11.9118
▁그만할래	-11.9118
▁후덜덜	-11.9118
▁놀이터에	-11.9118
▁못믿겠	-11.9118
▁시누	-11.9118
▁떠나갔네	-11.9118
잊기싫은	-11.9118
▁야구장	-11.9118
▁헤어졌을때	-11.9118
▁꽃바구니	-11.9118
▁광탈	-11.9119
▁머물	-11.9119
▁대충했	-11.9119
▁단톡에	-11.9119
▁수상한데	-11.9119
▁부작용	-11.9119
▁끝냈습니다	-11.9119
▁살려줘	-11.9119
년동거	-11.912
▁인형뽑기	-11.912
투덜	-11.912
▁앞서서	-11.912
▁대학교	-11.912
▁변명거리	-11.912
▁고시생	-11.9121
▁영원했으면	-11.9121
▁한심하네	-11.9121
잡히네	-11.9121
▁다가온	-11.9121
▁먹먹함	-11.9121
▁비교돼	-11.9121
빌어먹을	-11.9121
▁삐져	-11.9121
▁돌아온	-11.9122
▁잠식시	-11.9122
▁비왔으면	-11.9122
▁기름값	-11.9122
▁숨쉬	-11.9122
▁퇴근시간	-11.9122
▁양다리	-11.9122
▁대충	-11.9122
▁맞출까	-11.9122
▁잡담	-11.9122
▁친추	-11.9122
▁건물주	-11.9122
▁씁쓸하네	-11.9122
▁떠나갔어	-11.9123
▁짝사랑이었네	-11.9123
▁신입	-11.9123
▁공허하네	-11.9123
▁청강	-11.9123
▁데려다줬는데	-11.9123
▁바래다	-11.9124
▁데려달라고	-11.9124
▁신기해	-11.9124
▁자야하는데	-11.9124
프겠지	-11.9124
▁불러준	-11.9124
▁원망스럽	-11.9125
▁장난친	-11.9125
▁끊었으면	-11.9125
▁끝인거겠죠	-11.9125
▁말았네	-11.9125
▁바보짓	-11.9125
겼으면	-11.9125
▁허전해	-11.9125
▁괴롭혀	-11.9125
▁학교생활	-11.9126
▁이용당	-11.9126
▁잠들기	-11.9126
▁외박	-11.9126
나가고	-11.9126
▁예전처럼	-11.9126
▁못받	-11.9126
▁맞출	-11.9127
▁고백해도될까	-11.9127
▁되어갑니다	-11.9127
▁시절	-11.9127
▁착각일까	-11.9127
▁아휴	-11.9127
▁떠났습니다	-11.9127
▁산이네	-11.9128
▁떠올라	-11.9128
▁안돌아오나	-11.9128
▁진담	-11.9128
▁끝냈는데	-11.9129
▁남은걸까	-11.9129
달반	-11.9129
▁잔인하네	-11.913
▁따위	-11.913
▁절망적	-11.913
주정도	-11.9131
▁싫었는데	-11.9131
▁봄방학	-11.9131
▁긴장돼	-11.9131
▁일어난	-11.9131
될것같	-11.9131
▁받아드리	-11.9132
▁오늘밤	-11.9132
▁놓쳤다	-11.9133
▁초초	-11.9133
▁괴로운	-11.9133
▁취급	-11.9133
▁깨졌는데	-11.9133
키니	-11.9134
▁냄새날	-11.9134
▁봐야겠다	-11.9134
▁지침	-11.9134
▁서운한거	-11.9134
▁열받아서	-11.9135
스피	-11.9135
▁잊고싶다	-11.9135
냈는데	-11.9135
▁새롭	-11.9135
▁기계	-11.9136
▁발렌타인데이인데	-11.9136
▁파혼했어	-11.9136
▁뽑아	-11.9137
▁어디있을까	-11.9137
▁힘든거네	-11.9137
▁울었어	-11.9138
▁간지러	-11.9138
▁달라질까	-11.9138
겨줘	-11.9139
▁만나고왔어	-11.9139
미칠꺼	-11.9139
▁주름	-11.9139
▁받았습니다	-11.914
▁불효자	-11.914
▁사갈까	-11.9141
크림	-11.9141
▁시켜줘	-11.9141
▁괜찮았는데	-11.9142
▁버려달라고	-11.9142
화하기	-11.9143
▁또라이	-11.9144
▁가족같은	-11.9144
▁솔로야	-11.9144
▁하품	-11.9145
▁안되는건가	-11.9145
▁원두	-11.9146
▁컸으면	-11.9146
▁태어났으면	-11.9146
개월간의	-11.9146
▁부담돼	-11.9146
▁답일까	-11.9147
▁작별	-11.9148
▁맞는거겠죠	-11.9148
▁한쪽	-11.9148
▁결재	-11.9148
▁싶었는데	-11.9148
▁임신	-11.9149
▁결혼해야할까	-11.9149
▁삼주	-11.915
▁맞추려고	-11.915
근무	-11.915
개월동안	-11.915
뜨문	-11.9151
▁사라질까	-11.9152
아올	-11.9154
▁돌아올거	-11.9154
찬하	-11.9154
▁부담스러운데	-11.9154
▁몸매	-11.9155
신부	-11.9156
▁회의감	-11.9156
▁쳐다보	-11.9156
▁설레발	-11.9156
바구니	-11.9156
▁꺼질	-11.9157
▁레고	-11.916
▁생일이야	-11.916
▁보름	-11.9161
▁졸리	-11.9161
▁힘드네ᅮ	-11.9161
▁배부르	-11.9163
▁차리래	-11.9163
동적	-11.9163
▁취향인데	-11.9163
▁사랑이었을	-11.9165
▁죽음	-11.9165
던곳	-11.9166
▁보고싶은	-11.9168
▁방구	-11.9169
▁전남자친구	-11.9171
▁은퇴후	-11.9172
▁엿같	-11.9174
생긴	-11.9174
▁귀엽대	-11.9174
▁파마	-11.9174
꾸룩	-11.9174
▁사겼는데	-11.9175
▁다음날	-11.9175
▁이번주	-11.9176
릴까	-11.9177
▁주워	-11.9178
▁생각처	-11.9179
▁썼는데	-11.9183
▁무서운건	-11.9184
▁면세	-11.9184
▁수십	-11.9185
▁잘생긴	-11.9187
▁어쩔수	-11.9187
불가	-11.9188
▁위안	-11.9189
리스	-11.919
▁피해자	-11.9191
▁해주기	-11.9191
급하	-11.9191
▁보조	-11.9193
▁몇번	-11.9194
▁나아졌다	-11.9195
▁생겼대	-11.9195
▁올려봅니다	-11.9196
▁온천	-11.9197
▁오르고	-11.9197
▁기부	-11.9197
▁사랑꾼	-11.9198
▁모임이	-11.9198
▁만나지말	-11.9201
▁사이트	-11.9202
모닝	-11.9202
▁들었는데	-11.9202
올릴까	-11.9203
▁질린다	-11.9205
▁순진	-11.9205
▁생리	-11.9206
▁쓰여	-11.9207
▁헤어지신	-11.9208
▁경과	-11.9208
▁사줄까	-11.921
▁화났	-11.9211
▁마음이란게	-11.9213
이런	-11.9214
보내버렸네	-11.9215
▁겁이나	-11.9216
▁잘지내고있	-11.9217
▁차임	-11.9217
▁떠오르네	-11.9218
▁같을까	-11.922
▁멈춰버	-11.922
났으면	-11.922
▁이것만	-11.9221
웠을	-11.9222
진행중	-11.9222
▁갈구	-11.9224
개월이네	-11.9225
▁먹여주나	-11.9226
리마	-11.9228
▁후회돼	-11.9229
상종	-11.923
▁찾아볼까	-11.923
▁한순간에	-11.9231
▁노답이	-11.9234
▁답장해	-11.9234
▁나올까	-11.9235
러드	-11.9236
▁불만만	-11.9238
▁긴여	-11.924
▁물건	-11.924
▁떨어졌	-11.9242
▁꾸는데	-11.9243
▁쓰이네	-11.9243
할꺼야	-11.9244
▁나오는데	-11.9246
▁억	-11.9246
만나자는	-11.9247
▁전화하기	-11.925
▁멋있어	-11.925
▁오늘부	-11.9252
▁해야겠어	-11.9252
▁안열	-11.9254
▁일주일째	-11.9256
▁흘렀는데	-11.9259
▁무사	-11.926
▁화나고	-11.9263
▁못잊을	-11.9264
일째인데	-11.9265
려질	-11.9265
유유	-11.9266
▁나오지	-11.9266
▁들어줄래	-11.9266
▁들겠	-11.9267
▁메일	-11.9267
번에	-11.9268
▁이별이야기	-11.927
▁모질	-11.9271
갔는	-11.9271
경이	-11.9271
▁이겨내기	-11.9273
▁먹방	-11.9274
▁짝사랑중	-11.9275
▁무뎌졌	-11.9283
▁회의	-11.9285
▁마디	-11.9287
놓은	-11.9288
▁가출	-11.9288
▁장수	-11.9289
던가요	-11.929
▁무너졌	-11.929
▁밉다	-11.9294
비꼬는	-11.9297
▁어찌보	-11.9297
▁나이먹	-11.93
▁지내는데	-11.9304
▁불타오	-11.9305
▁동거중	-11.9306
롭지	-11.9307
▁보이는데	-11.9307
▁취직이	-11.9311
▁모른	-11.9311
▁아프니까	-11.9312
▁그놈	-11.9314
▁떠올	-11.9315
▁찰랑	-11.9315
▁구상	-11.9316
▁시켰	-11.9316
▁이별할때	-11.9318
▁매달리	-11.9319
실수했다	-11.932
데이인데	-11.932
호를	-11.9322
▁어쩌죠	-11.9322
▁끝이보	-11.9325
▁완벽해지	-11.9325
나쁜건지	-11.9326
담하	-11.9327
▁있다는데	-11.9329
고쳤	-11.9329
봐서	-11.933
직한	-11.9331
▁기차	-11.9332
▁문제일	-11.9332
스럽다	-11.9332
▁놀려	-11.9334
▁초라해	-11.9336
▁노래들	-11.9337
▁오긴	-11.9337
▁오나	-11.9342
름에	-11.9343
▁솔로인	-11.9344
▁도자기	-11.9345
으면서	-11.9349
▁끌	-11.9351
작용	-11.9353
▁위대한	-11.9354
▁썩	-11.9356
▁한달인데	-11.9356
▁괜찮았는	-11.936
졌을	-11.9361
해주고싶	-11.9362
▁정리해야지	-11.9362
▁말했으면	-11.9367
▁내봐	-11.9367
▁푸석	-11.9368
▁설레게하	-11.9368
▁모양	-11.9368
▁꼈어	-11.9368
▁느낀다	-11.937
▁불쌍	-11.937
▁치킨	-11.9371
▁그런건지	-11.9371
스럽지	-11.9372
나지	-11.9374
▁제사	-11.9377
▁자유로	-11.9377
▁근질	-11.9378
지망	-11.9381
▁주절	-11.9382
▁들어오	-11.9382
▁털어	-11.9384
▁깨지	-11.9386
▁정상인가	-11.9386
▁그렇겠지	-11.939
▁당했습니다	-11.9394
쓰레기통	-11.9395
▁홀	-11.94
▁뭘해도	-11.9401
▁안타까	-11.9401
▁안내는	-11.9402
▁생활비	-11.9404
잊혀지려	-11.9404
▁이후	-11.9406
정해진	-11.9408
녀를	-11.941
▁집사	-11.9412
초반	-11.942
잊어보려고	-11.9422
▁소통	-11.9425
▁다시만나	-11.9427
▁했더	-11.9427
바싹	-11.943
▁입맛없	-11.9433
▁끝나네	-11.9434
▁여친과	-11.9438
▁확실해졌	-11.9439
▁못잊는	-11.9448
▁장난치	-11.9449
▁필요할까	-11.9449
▁없었어	-11.945
▁외로워서	-11.9452
라구	-11.9452
자가	-11.9461
▁인생에	-11.9461
▁거짓	-11.9463
▁질리게	-11.9474
려야	-11.948
구가	-11.9483
▁의미일까요	-11.9485
▁흐음	-11.9486
▁냉정해	-11.9489
가져	-11.9491
▁멀어진다는	-11.9494
이요	-11.9494
▁낀	-11.951
끌어	-11.9515
▁비싸다	-11.9516
질거	-11.9516
거리는	-11.9519
▁걸지	-11.952
▁훈훈하	-11.952
▁속지말	-11.9521
나온	-11.9531
▁불타	-11.9536
▁짱나	-11.9536
▁티비	-11.9542
해들	-11.9543
▁외로울	-11.9544
▁한데	-11.9547
▁너덜너덜해	-11.9552
▁잘됐	-11.956
▁좋아하는건가	-11.9567
▁듬	-11.9579
▁되돌리	-11.9584
시니	-11.9584
보내주려	-11.9586
▁바본	-11.9591
조언부탁	-11.9593
이었겠	-11.9594
않으려고	-11.9594
▁오니	-11.9598
▁헌신하	-11.9605
▁화내는	-11.9606
▁많으	-11.9609
▁달래	-11.9609
▁될거	-11.9613
사니까	-11.9613
▁유학간	-11.9615
▁힘들줄	-11.9618
▁잘못이지	-11.9621
▁대쉬해	-11.9622
▁술기운	-11.9623
하려나	-11.9626
▁찾아갔네	-11.9627
상해	-11.9636
▁맘대로	-11.9636
▁써야	-11.9645
▁시간인	-11.9646
▁잊혀지네	-11.9646
마시러	-11.9649
▁다가가기	-11.9653
긴했는데	-11.9653
▁보드	-11.9658
▁카톡하는	-11.9659
▁잘라야	-11.9665
▁질투하	-11.9669
▁기분이야	-11.967
▁연애끝	-11.967
스에	-11.9675
▁안되었	-11.968
타이	-11.9681
긴이별	-11.9681
▁가볼까	-11.9683
▁영화보자	-11.9686
▁오래걸	-11.9688
▁잇	-11.9692
거든	-11.9693
갈리	-11.9693
▁사랑이란	-11.9695
▁양심	-11.9697
▁의미일	-11.97
▁그후	-11.97
▁날이야	-11.9706
통이	-11.9714
▁패	-11.9715
▁전화할	-11.9724
▁수학	-11.9726
▁빙	-11.9731
▁가망	-11.974
▁해외여행가	-11.9752
는건가	-11.9755
▁못잊는거	-11.9756
▁궁금한게있	-11.9756
▁누구니	-11.9758
정말끝이	-11.9758
▁촬영	-11.976
▁남겠	-11.9768
▁한사람	-11.977
▁키스	-11.9775
▁애야	-11.9779
▁데이	-11.9781
▁주차	-11.979
▁감기약	-11.9804
▁사라지	-11.9804
▁행복하지	-11.9805
라진	-11.9808
추는	-11.9808
았을	-11.9812
시간만큼	-11.9813
▁이루어질	-11.9814
내야하나	-11.9819
▁사랑했는데	-11.982
가운	-11.983
하셔야	-11.9832
▁가까워지	-11.9837
▁프	-11.9846
▁잘지내고	-11.9859
기능	-11.986
▁못내는	-11.9863
▁없음	-11.9871
▁왕따인	-11.9873
▁인사해	-11.9875
▁못하네	-11.9876
▁가는거	-11.9878
▁친절하	-11.9886
▁못자고	-11.9891
▁직업이	-11.9892
드나	-11.9894
있을	-11.9896
▁자만	-11.991
야할지	-11.9911
한거니	-11.9915
분인	-11.9916
▁죽는	-11.9926
▁경우에	-11.9933
걸리겠어	-11.9942
보내기	-11.9943
혼전	-11.9952
확하	-11.9953
▁지쳐가네	-11.9972
▁편안해	-11.9977
▁연애상담	-11.998
▁중요하겠	-11.9987
▁짜증나게	-11.9987
었을까	-11.999
▁내장	-11.9997
히지	-11.9997
상으로	-12.0002
샤워해	-12.0002
▁어떤거	-12.001
▁중요한가	-12.0012
▁막혔	-12.0013
▁그만둬야	-12.0018
▁연락이었	-12.002
▁알지만	-12.0027
▁붙잡을	-12.0033
▁두려워지	-12.0034
대기	-12.0035
▁있을게	-12.0036
▁후련할	-12.0036
▁관	-12.0036
▁그사람은	-12.0043
▁놈이	-12.0048
▁엄청나	-12.0049
▁롱	-12.0056
고프다	-12.0058
▁이별했어	-12.007
▁소중하	-12.0075
▁보인	-12.0087
같은데	-12.0116
▁근	-12.0117
▁쌈	-12.012
르는	-12.012
▁모르겠지	-12.0125
▁육	-12.0127
같았	-12.0127
다는것	-12.0129
▁죽고싶	-12.0129
▁불렀	-12.013
▁하라	-12.0137
일시	-12.0144
다니고	-12.0148
▁안오	-12.0154
▁있는걸	-12.0168
▁타로	-12.0172
▁붙잡으려	-12.0176
할까봐	-12.0179
겨보	-12.0181
▁축	-12.0193
▁화냈	-12.0193
이너	-12.0204
▁지금까지	-12.0205
것이	-12.021
관계인가	-12.0219
▁끊어	-12.0232
▁어색할까	-12.0237
전부	-12.0239
은거	-12.024
▁우선이	-12.0249
▁자유시간	-12.025
▁못하겠네	-12.025
▁되셨	-12.0256
▁문제네	-12.0264
▁올라오	-12.0268
있나요	-12.0271
▁알아버렸	-12.0277
▁심각	-12.028
갈까	-12.0283
답이	-12.0295
봐야	-12.0296
는거같아	-12.0319
▁여자야	-12.0335
▁싫지	-12.0335
▁최악이	-12.0336
▁비참하	-12.0338
▁하는건가	-12.0355
▁클럽가	-12.0364
▁강요	-12.0399
▁이해못	-12.0413
틀	-12.0414
▁만들었	-12.0415
▁안돼나	-12.0415
으신가요	-12.0419
▁생각나서	-12.042
다보	-12.0422
▁이별후에	-12.0427
▁노력한	-12.043
▁꽝이	-12.0435
들게	-12.0437
▁샤워하	-12.0441
▁미쳤	-12.0453
▁향하	-12.0456
▁선물할	-12.0458
싫어	-12.0458
▁다음주	-12.0467
▁뿌리	-12.0482
대에	-12.0485
▁첫사랑인	-12.0496
▁걸렸	-12.0497
구만	-12.0499
▁상태인가	-12.0499
람이라	-12.0503
▁못잊겠	-12.0504
▁직장인이	-12.0509
걸까요	-12.0513
▁생활하	-12.0514
▁말려	-12.0515
가왔습니다	-12.0549
▁강요하	-12.0554
▁프사가	-12.0569
는것	-12.0575
▁좋았을	-12.0577
시할	-12.0578
동선	-12.0578
감각	-12.0588
을거야	-12.0589
▁이별했	-12.0593
▁할래	-12.06
보내	-12.0603
나네	-12.0617
▁폭	-12.0631
▁다녀온	-12.0657
▁엉망	-12.0661
▁중독인가	-12.067
▁헤어진다	-12.0691
▁피나	-12.0703
▁고민한	-12.0706
▁이별하려	-12.0734
해본적	-12.0737
▁나빠졌	-12.0738
▁하는걸	-12.0749
▁포기하려	-12.0764
▁살았다	-12.077
▁이유에	-12.0773
▁때리	-12.078
앞	-12.08
나만	-12.0806
▁단톡방에	-12.0808
만두	-12.0819
보네	-12.0838
▁당황스러	-12.0846
▁선물하	-12.0874
▁걷는	-12.0874
서서	-12.0886
여친	-12.089
▁타이밍인	-12.0893
달에	-12.0907
▁까	-12.091
▁행동하	-12.0931
▁이별이지	-12.0949
▁무덤덤	-12.0949
지길	-12.0958
사고	-12.0979
됐으면	-12.098
▁죄인	-12.0994
▁냉정하	-12.1
▁이쁘	-12.1002
▁아무렇	-12.1009
▁놓쳤	-12.1053
▁없겠	-12.1054
꺼야	-12.1087
▁잊어야겠	-12.1099
▁두려	-12.1109
▁사랑받	-12.1122
▁안해야	-12.1131
란다	-12.1141
▁운동해	-12.1142
리게	-12.1148
점이	-12.1171
기간	-12.1173
나오	-12.1174
▁키워보	-12.119
▁참아야겠	-12.119
▁연락해봐	-12.1196
뭐냐	-12.1211
비해	-12.1243
▁은퇴해야	-12.1249
▁기억안	-12.1258
▁침대에	-12.1264
▁도네	-12.1274
끔	-12.1281
건너	-12.1288
▁부르는	-12.1308
▁찍은	-12.1319
▁놓아줬	-12.1328
▁괜찮아졌다	-12.1335
로라	-12.1341
갈래	-12.1343
▁잘되	-12.1395
▁모의	-12.1395
분들께	-12.1407
▁만날수	-12.1453
▁사람이라	-12.1469
▁부담스러워해	-12.15
기까지였나	-12.1527
있는건지	-12.1534
▁잠들	-12.1537
ᄒ	-12.1554
▁원망하	-12.1556
▁쿨하	-12.1559
거였네	-12.1566
▁마셨어	-12.1589
먹었다	-12.1592
▁들리네	-12.1602
▁날이에	-12.1605
것인가	-12.1619
▁매달렸	-12.1634
있는데	-12.1663
▁기복	-12.1674
▁궁	-12.1676
▁절친이	-12.1688
상화	-12.1726
사람과	-12.1727
의점	-12.1743
▁씻기	-12.1744
▁있을거	-12.1744
▁신기	-12.176
▁짝사랑에	-12.1774
▁S	-12.1833
▁하고싶어	-12.1847
▁듣고싶	-12.1854
채나	-12.1865
▁잘자	-12.1868
내려	-12.1875
내요	-12.1885
안나	-12.1898
말이라	-12.1899
▁놓으려	-12.1903
▁욕하	-12.191
▁믿어보	-12.1933
아가는	-12.1937
그러	-12.1948
▁보름달이	-12.1952
이러	-12.1964
렸으	-12.1971
▁챙겨줄	-12.1975
▁할일	-12.1978
▁다가갈	-12.1982
▁중이	-12.1987
히는	-12.1989
좋은	-12.2001
▁백	-12.203
▁힘들어지	-12.2085
하자는	-12.2109
가네	-12.2116
다네	-12.2126
▁재회가	-12.2151
▁알아요	-12.2155
▁공시생이	-12.2164
▁알겠	-12.2182
▁잊어주	-12.2185
가도	-12.2189
안된다	-12.2194
▁오래타	-12.2203
싶어지네	-12.2219
▁않은거	-12.2242
▁살만	-12.2259
자신	-12.2263
달래	-12.2331
뻔했	-12.2336
자는	-12.234
된다는	-12.2362
전할	-12.2365
▁울었	-12.237
구는	-12.2376
▁흐르네	-12.2394
▁잠수이별인	-12.2396
를까	-12.2399
들겠지	-12.2402
않아	-12.2406
학원에	-12.2416
간이라는	-12.2423
같죠	-12.2424
낸다	-12.2462
각지	-12.2464
해드	-12.2494
▁반이	-12.2497
왔으면	-12.2505
▁씨	-12.2516
는걸까	-12.2518
▁붙였	-12.2524
좋은건	-12.2526
▁불편하	-12.2541
▁가네	-12.2548
잡	-12.2556
▁나을가	-12.2568
▁왜이러	-12.2607
▁내릴까	-12.2629
▁다른반	-12.2643
아있	-12.2651
답이야	-12.2655
▁별이	-12.2657
▁잔인하	-12.2687
끈하	-12.269
정말	-12.2723
▁헤어진건	-12.2724
▁헤어지겠	-12.2725
▁술마시면	-12.2736
드는	-12.2752
▁착해	-12.2764
▁놓았	-12.2771
났는	-12.2778
▁취업하	-12.2782
▁잘못했다	-12.2801
좋아요	-12.2808
▁짝사랑하	-12.281
▁나나봐	-12.2811
반에	-12.2811
▁생겼다는	-12.2816
했더	-12.2819
▁차별받	-12.2843
▁없을거	-12.2846
져야	-12.2853
제로	-12.2855
나고	-12.2856
고있었는데	-12.2872
▁힘겨	-12.2927
▁실망했	-12.2934
▁나오는	-12.294
▁조심해야겠	-12.2958
▁들어보	-12.2962
▁불행해	-12.2967
▁다쳤	-12.2971
▁생겼다	-12.2984
다보니	-12.2985
▁반하	-12.2998
▁ᄏ	-12.3013
▁변명이	-12.3026
로우니까	-12.3026
▁가득한	-12.3042
▁여자에	-12.3048
▁산책하	-12.3065
▁모임	-12.3065
▁덤덤	-12.3068
▁능	-12.3095
▁냈	-12.3099
▁투자라	-12.3102
나니까	-12.311
▁붙잡아보	-12.3176
었을	-12.3201
할수	-12.3226
려오네	-12.323
▁밥도	-12.3269
▁욕먹	-12.3271
▁몇시간	-12.3271
남자친구	-12.3272
해봐	-12.3278
째인데	-12.3287
▁지내자	-12.3305
연락	-12.3329
▁혼자라는	-12.3341
받는	-12.3345
여행이	-12.3346
왔	-12.3356
▁과식했	-12.3366
쓰기	-12.3372
▁운동하면	-12.3398
▁따듯해	-12.3427
▁많을까	-12.3447
어난	-12.3447
졌나	-12.3455
▁돌아가면	-12.3465
중에	-12.3502
친구에게	-12.3517
사람들	-12.3533
아무일	-12.3561
▁얼마전	-12.3577
▁끝내려	-12.3579
▁당황하	-12.3585
라던	-12.3597
▁잘했다	-12.3648
라요	-12.365
▁줄어	-12.3662
▁행복해보	-12.3668
오는데	-12.3668
▁같았	-12.3672
때요	-12.3677
해야하는	-12.3689
▁뒤숭숭	-12.3734
▁잘못했다는	-12.374
석해	-12.3755
▁철벽치	-12.3767
▁깨졌	-12.3768
잘못으로	-12.3793
론이	-12.3795
오는	-12.3806
녀한테	-12.3809
다는걸	-12.3835
▁살인	-12.3838
한듯	-12.3853
▁수준이	-12.3859
▁맞았네	-12.3862
▁되었다	-12.3894
▁결혼식이	-12.3898
이러니	-12.3901
▁터졌	-12.3906
▁갔다왔	-12.3915
▁한달됐	-12.3927
▁상처받아	-12.3927
일이야	-12.3931
▁않음	-12.3976
▁못하는거	-12.3981
▁중요하겠지	-12.4007
졌다	-12.4016
아볼	-12.4027
야한다는	-12.4035
▁살거	-12.4043
▁남을까	-12.4064
거래	-12.4069
한건지	-12.4076
맘이	-12.4078
질까	-12.411
▁초대해	-12.4118
▁끝나가	-12.4129
▁알바해보	-12.4154
은것같	-12.4181
해줄까	-12.4186
거지같이	-12.4205
▁차였	-12.4252
▁돌아왔	-12.4255
▁준비해야	-12.4279
사랑이	-12.4291
▁못잊	-12.4299
▁차단한	-12.4306
됐습니다	-12.4316
▁보자는	-12.4324
먹으면	-12.4353
▁아닌것	-12.437
▁관심있는	-12.437
요일	-12.4383
▁좋아하면서	-12.4383
독하	-12.4385
▁끝났다	-12.4389
해주고	-12.4422
만해	-12.4424
신가	-12.4426
▁하겠	-12.4436
▁차는	-12.4441
▁지켜야	-12.4463
거같은데	-12.449
힘든	-12.4491
▁발전하	-12.4511
하라	-12.4512
▁병신인	-12.4543
▁사내에	-12.4555
했다는	-12.4559
▁내편	-12.4562
올라	-12.4609
척이	-12.4623
네ᄒ	-12.4627
▁라는	-12.464
보고싶어	-12.4652
였네	-12.4698
못해	-12.4721
왜	-12.4742
독한	-12.4755
었음	-12.4758
▁이끌	-12.4768
▁냉정	-12.4769
▁바람난거	-12.4782
청소	-12.4785
▁취직하고	-12.4789
▁싫으	-12.4791
받아서	-12.4801
▁평가해	-12.4809
만난	-12.4819
은걸까	-12.4824
가기	-12.4826
인건	-12.4866
▁떠나야겠	-12.4884
▁대하	-12.4884
다더니	-12.4903
▁이사가	-12.4925
무리	-12.493
▁결정하	-12.4976
▁의외인	-12.5026
▁익숙함	-12.5026
▁결혼이	-12.5046
▁가을	-12.5072
간에	-12.5099
▁신청했	-12.5099
여주	-12.512
▁끝내야	-12.5131
▁비가오니	-12.5138
▁끝인거	-12.5166
▁돌리고	-12.5197
내는	-12.5215
야겠죠	-12.5239
▁질려	-12.5245
드는데	-12.5272
떠세요	-12.5291
▁일년같	-12.5309
▁이별로	-12.5315
줄래	-12.532
▁동거해도	-12.5325
▁남긴	-12.5328
▁이해해줄	-12.5344
▁못나	-12.5362
▁라	-12.5363
▁제자리걸음이	-12.5377
▁잊어야하	-12.5386
▁잘한	-12.5414
연애인데	-12.545
힘들어	-12.5465
▁스킨십하고	-12.5475
▁환승이	-12.5501
▁미치네	-12.5507
드니까	-12.5513
▁다이	-12.5536
▁집착인	-12.5544
▁내꺼	-12.5547
▁불면증인가	-12.5555
못하고	-12.5601
▁좋아해주	-12.5626
▁막막	-12.5636
하겠지	-12.5643
▁올거	-12.5671
켜	-12.568
▁이마	-12.5699
▁단톡방	-12.5715
러가	-12.5743
잡길	-12.5747
▁콩	-12.575
▁싫어졌	-12.5756
▁흘	-12.5778
서로	-12.578
▁휴지	-12.5781
아들	-12.5807
하기로했	-12.5807
▁차단했	-12.5822
▁돋	-12.5866
술	-12.5866
▁알게되	-12.5876
아야할	-12.5877
▁보내왔	-12.5881
▁올랐	-12.5894
당하	-12.5908
인가보다	-12.5918
당했	-12.5941
▁겨울이	-12.5947
갔	-12.5978
▁인정해야할	-12.5979
▁밥먹	-12.598
▁밀당해	-12.5983
▁보내야	-12.6
▁타야	-12.601
▁갠톡하	-12.6029
나는데	-12.603
나와	-12.6039
▁걱정해	-12.6081
가나봐	-12.609
가보는	-12.6093
▁맞는건	-12.61
▁인스타에	-12.6107
▁온거	-12.6128
짰다	-12.6137
▁변했	-12.6148
들과	-12.6172
이유	-12.6195
기운을	-12.6205
▁쓴다	-12.6214
별일	-12.6221
▁연락하고싶	-12.6244
여기	-12.626
알	-12.6292
▁여자사람	-12.6296
귀	-12.6309
되겠지	-12.6337
▁꽝	-12.6338
였다	-12.6381
▁저음	-12.64
답할	-12.6408
놓	-12.6412
▁만났네	-12.6432
힘드네	-12.6433
헤어진	-12.6439
언제	-12.6445
이었으	-12.6473
▁예뻐보	-12.6478
▁예뻐졌	-12.6489
지말	-12.6506
▁그나	-12.6521
▁안난다	-12.6521
덜	-12.6523
▁지하철	-12.6541
았나	-12.6541
쁘더라	-12.6549
▁도서관에	-12.6552
는건지	-12.6563
▁휴학하	-12.6567
둬	-12.6567
▁취하	-12.6571
들때	-12.6572
▁창업해	-12.6572
▁길다	-12.6574
얼	-12.6599
해졌어	-12.6601
말아	-12.6633
카톡	-12.6647
▁싸웠는	-12.6654
란게	-12.6679
들겠죠	-12.6682
렸을까	-12.6684
▁보내려	-12.6695
휴가	-12.67
▁가져봐	-12.6709
외로	-12.6725
▁웃으	-12.6747
인생	-12.6769
조언	-12.6807
모르겠어	-12.683
▁뭘해야	-12.6834
▁필요한가	-12.684
순간	-12.6844
굴	-12.6846
▁참아야	-12.6869
꼭	-12.6903
좋겠다	-12.6903
아야	-12.6905
미련	-12.6906
▁표시하	-12.6924
펴	-12.693
추억	-12.6933
났나봐	-12.6933
▁마시는	-12.6934
한가요	-12.6942
해야할	-12.6944
▁무시했	-12.6949
자들	-12.6957
▁낫네	-12.6972
▁적응하	-12.6978
작하	-12.6981
스러웠	-12.7002
이게	-12.7039
라이	-12.7068
▁믿었	-12.7069
▁밖	-12.707
이였	-12.7074
듯해	-12.7082
이별을	-12.7084
▁직장인	-12.7086
헤어짐	-12.7087
앞에	-12.7096
않았	-12.7099
신경	-12.7111
만나고	-12.7114
어디	-12.7119
떠나려	-12.7121
▁연락하고싶어	-12.7132
▁일일	-12.7143
마지막	-12.7151
▁가야겠	-12.7154
났	-12.7154
▁사람일까	-12.7163
아닌	-12.7194
년이라	-12.7215
놀	-12.7219
뜻	-12.7226
써	-12.7235
활	-12.7236
▁잠겼	-12.7237
▁말조심	-12.724
▁연애상담해	-12.7258
위기	-12.7267
타면	-12.728
▁시켜야	-12.7282
의미	-12.7283
잠	-12.7308
커피	-12.7309
일어나	-12.7328
아직도	-12.7335
▁그러려	-12.7338
여유	-12.7351
▁갑작스	-12.7362
알았는데	-12.7381
맞는데	-12.7383
예의	-12.7391
▁단거	-12.7394
▁보수적	-12.7401
자신이	-12.7422
빨리	-12.7429
날씨	-12.7435
위해	-12.7441
짝남한테	-12.7454
해주세	-12.7456
잠깐	-12.7474
놀아	-12.7483
▁어색할	-12.7485
▁그립겠	-12.7486
생일	-12.7491
된걸까	-12.7492
좋	-12.7498
▁잊었는	-12.7502
▁일어나보	-12.752
꽃	-12.7523
직장	-12.7538
노력	-12.754
▁미루는	-12.7557
헤어지	-12.7568
▁터지겠	-12.7577
▁철벽	-12.7578
▁데이트하	-12.7592
물어	-12.7592
하자는데	-12.761
차리	-12.7626
▁친구같	-12.7656
만나지	-12.766
▁나으	-12.7666
방법이	-12.7669
주신	-12.7674
▁궁금한게	-12.7677
맞	-12.7683
곧	-12.7686
모	-12.7687
느낌	-12.7694
하늘	-12.7695
손	-12.7696
▁되었어	-12.7697
고가	-12.7697
▁딸	-12.7707
▁결혼할까	-12.7709
▁출근이	-12.7716
밤	-12.7728
정이야	-12.7736
되겠지만	-12.7736
꼬	-12.7746
어리	-12.7747
카페	-12.7747
해봤	-12.777
▁미쳐	-12.7771
말해	-12.7778
덕	-12.7798
교	-12.7816
헤어졌습니다	-12.7828
싫다	-12.7833
날이	-12.7834
▁안나겠	-12.7845
빠	-12.7855
않으니	-12.7866
아졌어	-12.7868
답이죠	-12.7869
숨	-12.787
▁고맙	-12.7873
가능성	-12.7881
찾기	-12.7881
▁잊었	-12.7906
추억이	-12.7935
꿈에	-12.7947
흘렀네	-12.7949
안되는	-12.7954
곳이	-12.7956
▁헌신	-12.796
어야지	-12.7969
▁동거하는	-12.7976
▁농구	-12.7977
만나	-12.7979
듬	-12.7991
짜	-12.7993
이었어	-12.7995
취미	-12.801
끝나	-12.8017
조심	-12.8019
사람이	-12.802
다는건	-12.802
한잔	-12.8023
시험	-12.8026
▁잊혀	-12.8043
미쳤	-12.8043
▁백업	-12.8047
무시하	-12.8065
춘	-12.8071
▁한가	-12.8075
했으니	-12.8076
우울	-12.8076
지났네	-12.8077
▁너덜너덜	-12.8078
내지	-12.8081
큼	-12.8083
극복	-12.8085
브	-12.8092
▁봤	-12.8094
알면서도	-12.81
▁밀	-12.8106
얘기	-12.8115
상대로	-12.8122
나갈까	-12.8122
봄	-12.8123
마시	-12.8123
살아야	-12.8124
근처	-12.8128
▁불타올	-12.813
듣고	-12.8131
됐네	-12.8133
▁청춘	-12.8134
시간동안	-12.8135
해준	-12.814
▁마세	-12.8143
▁맞은	-12.8145
▁훈훈	-12.8148
나갔으면	-12.8161
시어머니	-12.8164
쟁	-12.8165
장거리	-12.8166
해지기	-12.8172
낀	-12.8173
별로	-12.8176
쐬	-12.8181
듣	-12.8185
미세먼지	-12.8189
▁잡혀	-12.8189
크리스마스	-12.8194
소비	-12.82
희망	-12.8202
▁무뎌	-12.8209
짜증나	-12.8212
프로포즈	-12.8219
능력	-12.8229
말투	-12.8236
들죠	-12.8237
▁연애하	-12.8241
핑	-12.8258
보고싶	-12.8258
사실	-12.8263
떠	-12.8271
깊	-12.8274
부탁드려	-12.8278
견해	-12.8282
있으신가	-12.8283
워질거	-12.8284
이스	-12.8287
바꾸	-12.8289
노력해	-12.8293
좋았	-12.8296
기다리지	-12.83
원망	-12.8304
전공	-12.8305
sns	-12.8307
센스	-12.8307
마시면	-12.8316
집착	-12.8319
남기	-12.8332
효	-12.8333
충격	-12.8339
꾹	-12.8351
돌아	-12.8352
만나기로	-12.8352
갔는데	-12.8361
베터리	-12.8361
상태	-12.8364
힘듭니다	-12.8366
헤어졌네	-12.8369
졸	-12.8369
바라	-12.8371
있다는	-12.8374
▁다되가는	-12.8377
▁잊어보려	-12.839
8	-12.8391
끊었	-12.8394
듣기	-12.8395
깜	-12.8397
예감	-12.8399
공간	-12.8401
이런건	-12.8402
했었	-12.8405
빠져	-12.8406
▁입맛	-12.841
우울해	-12.8416
똥	-12.8419
홀	-12.8421
왔나봐	-12.8421
▁저장	-12.8422
않네	-12.8425
남은	-12.843
바늘	-12.8437
정류장	-12.8439
▁전화하면	-12.8444
잤어	-12.8448
응	-12.8452
아파트	-12.8453
▁못내	-12.8453
빠지	-12.8455
르지	-12.8458
견디기	-12.8463
두번	-12.8466
밤에	-12.8467
일러	-12.8467
쳤	-12.8468
탔	-12.8469
당했습니다	-12.8469
▁받으려	-12.847
없을까	-12.8474
외국어	-12.848
9	-12.8481
낳	-12.8481
누	-12.8482
칼	-12.8483
언제까지	-12.8488
넘었는데	-12.8488
베	-12.849
다툼	-12.849
키울	-12.8494
불쌍	-12.8494
예약	-12.8495
▁다하	-12.8497
프로필	-12.8498
답답해서	-12.8498
술한잔	-12.8499
콕	-12.85
잊혀지네	-12.8505
치킨	-12.8508
축제	-12.8508
취직	-12.851
여자와	-12.851
잊고싶	-12.8511
꼈어	-12.8511
더워	-12.8512
성형	-12.8512
주택	-12.8512
한마디	-12.8512
죽겠다	-12.8514
시급	-12.8516
운전	-12.8519
놀이	-12.852
총회	-12.8522
▁괜찮았	-12.8522
입을까	-12.8523
불쑥	-12.8523
깜빡	-12.8525
날짜	-12.8528
썩	-12.8529
밟	-12.853
착한	-12.853
꾸미	-12.8531
뛰어	-12.8534
근질	-12.8537
후에	-12.8539
▁손톱	-12.8539
못하네	-12.8539
윗	-12.8544
100	-12.8546
주절	-12.8547
멋	-12.8547
어머니	-12.855
그럴까	-12.855
모양	-12.8552
나가나	-12.8552
집앞	-12.8552
공개	-12.8553
잊	-12.8554
남자한테	-12.8556
떼	-12.8559
쭉	-12.8559
흠	-12.8559
걸리	-12.856
▁살자	-12.8562
쫄	-12.8562
부모	-12.8565
가득	-12.8565
냉	-12.8565
달차	-12.8568
▁술마	-12.8569
똑똑	-12.8571
농	-12.8571
밑	-12.8573
괜찮은	-12.8574
웃음	-12.8575
▁마음속에	-12.8577
불공평	-12.858
아픔이	-12.8591
너와	-12.8596
먹는	-12.8599
지났는데	-12.8599
막힌다	-12.86
김치	-12.8601
▁받을까	-12.8605
▁탈퇴했	-12.8609
▁잡으려	-12.8611
있더라	-12.8616
도와주	-12.8622
시켰	-12.8623
비용	-12.8624
만나다	-12.8625
▁못생	-12.8626
▁찌질	-12.8628
▁먹으니	-12.8628
▁집착인가	-12.8633
관리	-12.8634
쓰다	-12.8635
모임	-12.8638
생각나	-12.8645
듣는	-12.8646
죽는	-12.8652
넘어	-12.8653
그만하고	-12.8662
비만이	-12.8662
행복한가봐	-12.8665
▁다되어가	-12.8669
지나가네	-12.8671
▁죽었나	-12.8689
동거중인	-12.8693
안주	-12.8695
되었네	-12.8702
봤네	-12.8705
▁잤나	-12.8707
▁끝이라	-12.8709
▁반했	-12.8709
즐	-12.8711
▁누락	-12.8713
친구인데	-12.8715
축하	-12.8729
▁이시간	-12.8729
애인	-12.8741
람	-12.8748
보냈어	-12.8758
픈데	-12.876
사니	-12.8773
▁생겼나	-12.8774
나타났	-12.8785
전까지	-12.8796
접는	-12.8796
봐봐	-12.8798
밤이	-12.8799
▁갈거	-12.8805
끝인가	-12.8811
보러가	-12.8815
놀러가	-12.8819
▁않는다	-12.8822
▁실망스러	-12.8836
▁카톡해	-12.8838
찾	-12.8842
말하지	-12.8845
▁낸	-12.8847
그랬어	-12.8849
날까	-12.8854
녀야	-12.8862
썸이	-12.8872
▁엇갈	-12.8873
▁아픈거	-12.8877
이루	-12.8885
이였나	-12.8904
데이트도	-12.8918
▁얘기할	-12.8919
는다	-12.8926
▁힘내세	-12.893
아픈	-12.8937
▁헤어졌으니	-12.8941
▁초라	-12.8944
▁차단이	-12.8946
흘	-12.8947
▁부럽네	-12.8948
▁씹	-12.8952
안되	-12.8954
▁안녕하세	-12.8954
▁안타	-12.8956
▁모르나	-12.8957
▁네달	-12.8962
안하면	-12.8971
▁엿	-12.8971
▁장거리연애	-12.8986
러워	-12.901
긋	-12.9015
▁외국	-12.9016
출근해	-12.9016
였는데	-12.9023
줄거	-12.9025
▁누군	-12.903
▁자장면	-12.9031
▁밀려	-12.9034
쓸까	-12.9035
됐군	-12.9039
▁망설여	-12.904
▁끈이	-12.9056
▁간접	-12.9067
석해야	-12.9072
하고있어	-12.9076
다녀와	-12.9077
치워야	-12.9078
▁부담스러	-12.9082
▁같을	-12.9085
설명	-12.9086
▁절망	-12.9089
련	-12.9091
받으니	-12.9091
▁얼었나	-12.9093
막힌	-12.9098
벼	-12.9099
꼈	-12.9102
듭	-12.9103
혔	-12.9103
꿔볼까	-12.9103
렀	-12.9104
▁발렌타	-12.9104
련하네	-12.911
컥	-12.911
시킬	-12.911
황	-12.911
▁행동에	-12.9111
맙	-12.9112
▁어렸을	-12.9112
춤	-12.9112
▁맞춤	-12.9113
톱	-12.9113
▁핸	-12.9113
▁계속해	-12.9113
봇	-12.9113
▁격	-12.9113
▁뜬	-12.9113
▁퇴	-12.9114
▁승	-12.9114
▁눌	-12.9114
▁갱	-12.9114
턴	-12.9114
쩔	-12.9114
▁엄	-12.9114
▁엊	-12.9115
▁헬	-12.9115
램	-12.9115
▁텅	-12.9115
콤	-12.9115
▁헬스	-12.9115
▁뉴	-12.9115
욜	-12.9115
렬하	-12.9116
졋	-12.9116
몽	-12.9116
칭	-12.9116
낭	-12.9116
률	-12.9116
▁섬	-12.9116
딜	-12.9116
습니	-12.9116
▁쌩	-12.9116
묵	-12.9116
댄	-12.9116
랜드	-12.9116
냄	-12.9116
쎄	-12.9116
▁덤	-12.9116
▁블랙	-12.9116
▁싱	-12.9116
렛이	-12.9116
령	-12.9116
첩	-12.9116
콘	-12.9116
팍	-12.9116
퓨	-12.9116
딘	-12.9116
▁흑	-12.9116
찍어	-12.9117
▁후폭풍인가	-12.9117
▁봉사	-12.9118
▁끝나버	-12.9121
리스마	-12.9122
평해	-12.9122
활동	-12.9122
▁열받	-12.9127
자제	-12.9128
▁발렌타인	-12.9129
못하나	-12.913
▁식욕	-12.9131
▁차갑	-12.9132
폭발	-12.9132
▁봐버	-12.9134
▁서류	-12.9137
렸는데	-12.9137
보내세	-12.9138
▁난다	-12.9144
번쯤	-12.9145
▁열받아	-12.9148
리모	-12.9156
백조	-12.9166
각인가	-12.9168
▁넘어질	-12.9168
▁소름	-12.9172
졌다는	-12.9173
▁가벼워	-12.9179
커풀	-12.9183
▁여친하	-12.9183
질테	-12.9185
▁야구	-12.9186
뜨려	-12.9192
명이라	-12.9198
▁멀었나	-12.9204
▁마시니	-12.9208
거려보	-12.9208
에나와	-12.9211
▁정신차	-12.9216
▁미용	-12.9229
이거	-12.9235
▁전학	-12.9236
▁불공평	-12.9246
▁수상한	-12.9255
무신	-12.9262
갈림	-12.9268
찰랑	-12.927
스릴	-12.9271
▁부럽	-12.9271
쳐오	-12.9279
▁무덤덤한	-12.9284
▁안받	-12.9292
▁얘기하	-12.9294
▁칼로	-12.93
저그	-12.9301
안하	-12.9316
▁사랑하니	-12.9318
▁주라	-12.9319
마스	-12.9321
관문	-12.9323
▁참석	-12.9331
트레	-12.9331
주일째	-12.9335
이트라	-12.9346
넘은	-12.9361
기다려야	-12.9367
나갔다	-12.9368
▁주저	-12.939
▁크리	-12.9395
이불	-12.94
어볼	-12.9405
보드	-12.9416
감수	-12.9417
한건	-12.9439
물해	-12.9443
▁착각일	-12.9444
▁이별이네	-12.9448
▁어째	-12.9461
▁그것만	-12.9473
내려고	-12.9475
▁장난인	-12.9477
년연	-12.9496
개월간	-12.9498
이겠	-12.9505
키지	-12.9532
직할	-12.9536
▁몇시	-12.9541
히나	-12.9542
▁좋아한	-12.9544
지않은	-12.9551
▁같은거	-12.9558
디로	-12.9565
▁알았나	-12.9565
젠가	-12.957
했을거	-12.9581
일을	-12.9582
▁해봤어	-12.9585
▁아프니	-12.9589
본지	-12.9606
연휴	-12.9615
지쳐	-12.9618
된거	-12.9639
▁알바하는	-12.9641
죽어	-12.9654
자인	-12.9654
리치	-12.9658
▁일해	-12.9667
어진지	-12.9713
▁없겠어	-12.9715
났는데	-12.9735
했나요	-12.9739
▁있는건	-12.9747
▁느	-12.975
없는거	-12.9751
아질	-12.9764
▁깨어	-12.9764
푸석	-12.9809
덜덜	-12.9838
▁어색해졌	-12.9852
▁꿈에나	-12.9854
▁똥	-12.9856
▁나에	-12.987
▁놀기	-12.9883
▁깜	-12.9884
있니	-12.9897
리여	-12.9901
말에	-12.9902
하더라고	-12.9914
진것	-12.9918
▁꾹	-12.9937
다주	-12.9938
주라	-12.9949
아오	-12.9958
▁더럽	-12.9959
다는거	-12.9987
전거	-12.9999
▁잘참	-13.0033
이인데	-13.0037
▁핑	-13.0042
싶지	-13.0044
혀지질	-13.0044
▁솔직했	-13.0084
잊지못	-13.0096
쁘겠	-13.0105
긴건	-13.0131
일이라	-13.0147
지워	-13.0151
할줄	-13.0158
▁싶어진	-13.0167
같다가도	-13.0172
두절	-13.0188
▁언제부터	-13.0242
▁안올	-13.0253
▁어리	-13.0254
▁춘	-13.0268
정리했	-13.0277
르다	-13.0295
소에서	-13.0301
데도	-13.0304
▁독한	-13.0346
허하	-13.0354
▁커플이	-13.0365
있으	-13.0376
▁해주세	-13.0381
있는거	-13.0389
로우	-13.0424
럽다	-13.0433
날거	-13.0459
▁있더라	-13.047
시간들	-13.0472
가나쁜건지	-13.0499
▁달째	-13.0513
▁하자	-13.0524
맞아	-13.0524
안일	-13.0531
▁안하	-13.0544
월이	-13.057
▁해야되는	-13.058
▁재회했	-13.0637
고통	-13.0644
▁해봤	-13.0647
▁오르	-13.0658
추가	-13.0686
분해	-13.0688
▁잘되는	-13.0697
어찌보	-13.07
▁되겠어	-13.0773
▁결혼해야할	-13.0797
사귀다	-13.0809
쉬운가봐	-13.083
▁자제	-13.0831
▁알았는	-13.0837
▁형	-13.0861
려니	-13.0892
째네	-13.0908
고픈	-13.0928
들어와	-13.093
적인데	-13.0931
갈수	-13.0977
방학했	-13.1005
▁천일	-13.1017
▁문제인	-13.1019
들만	-13.1026
▁블	-13.1042
▁꼬시	-13.1043
▁잘살	-13.1044
반인	-13.1087
만나고싶	-13.1093
글에	-13.1094
려해	-13.1118
▁쥐	-13.1141
보이나	-13.1141
▁소개팅이	-13.1146
▁하우스	-13.1182
자리인	-13.1202
울증	-13.1216
▁안되지	-13.1217
고쳐	-13.1222
럽네	-13.1228
쓰지마	-13.1286
▁가봐	-13.1288
▁길거	-13.1299
제하는	-13.1311
아하게	-13.1317
▁기름	-13.1319
나갔네	-13.1336
분에	-13.1356
근하	-13.1369
맞는걸	-13.1388
▁카톡에	-13.1391
애버	-13.1396
긴가	-13.141
기전	-13.1417
재가	-13.1427
반이	-13.1447
바지	-13.1458
▁사랑이라	-13.1469
스럽네	-13.1481
▁개같	-13.1487
미인	-13.1493
먹을까	-13.1516
러가네	-13.154
을수	-13.1541
물가	-13.1546
고있어	-13.1596
만이	-13.1609
못하는	-13.1641
처를	-13.1652
뻐해	-13.1675
들다	-13.1694
아직이	-13.1704
▁구해	-13.1705
▁챙겨주는	-13.174
신을	-13.1754
할래	-13.176
우스	-13.1762
원한	-13.1765
▁깨졌는	-13.1815
났다	-13.1832
▁짝사랑한	-13.1847
니는	-13.1851
▁워	-13.1857
부러	-13.1874
보고싶네	-13.1878
일거	-13.1881
먹었	-13.1908
▁자게	-13.1949
▁사귀지	-13.1949
내길	-13.1965
▁해야되	-13.2
▁완	-13.2004
▁못가	-13.2024
사해	-13.2111
줄만	-13.2154
▁이주	-13.2169
사한	-13.2169
브라	-13.2177
▁이를	-13.2197
▁착각인	-13.2217
▁잊은	-13.2257
보려고	-13.2274
▁든	-13.2278
▁이사람	-13.229
▁수고	-13.235
하게하	-13.2376
근이	-13.2393
▁기다리겠	-13.2486
같	-13.2501
▁이별하	-13.2525
▁니	-13.2532
▁흘렀는	-13.2536
▁결정이었겠	-13.2567
은듯	-13.258
▁없애야	-13.2592
▁정해	-13.2603
장에	-13.2608
전화	-13.2686
아시	-13.2701
▁기억하고	-13.2707
걸리는	-13.2718
▁잘가	-13.2733
유로워	-13.2765
데이	-13.2821
▁동거하	-13.2938
▁스트레칭해	-13.3004
슬퍼하	-13.3059
혼해야할까	-13.3153
되고싶	-13.3167
우선	-13.3187
▁친구인	-13.3206
일이나	-13.321
은것만	-13.3218
▁데려다주	-13.33
▁좋아하는건	-13.3302
▁회사가	-13.3302
▁막고	-13.3321
청소해	-13.3382
▁결혼준비하	-13.3446
▁혼자있	-13.345
않는	-13.3458
▁바래	-13.3472
프사	-13.35
▁해봐야	-13.353
▁좋아하다	-13.3567
▁면도하	-13.358
오는날	-13.3626
나나	-13.363
지니까	-13.3648
는연애	-13.3654
▁애한	-13.3663
해봤어	-13.3691
났을	-13.3707
고있는데	-13.3712
▁그리워하	-13.3714
들였	-13.3752
좋겠지	-13.3803
▁그녀에	-13.3812
네ᄒᄒ	-13.387
▁무한	-13.3872
들더라	-13.3906
붙였	-13.4024
않을	-13.4034
착해	-13.4101
하나요	-13.4148
해볼	-13.4167
달라	-13.4169
마음이	-13.4178
너무너무	-13.4183
다면서	-13.4185
▁생각해야	-13.4233
리며	-13.4274
하더라	-13.4293
지로	-13.4302
리카	-13.4305
사람한테	-13.439
아왔	-13.4473
려웠	-13.4582
▁겁	-13.4589
▁힘들어하는	-13.4604
들음	-13.4695
▁가지자	-13.4744
톡하면	-13.4785
▁사랑이야	-13.4791
상이	-13.4834
인거죠	-13.4847
느끼는	-13.4869
▁이혼하	-13.4901
▁조급	-13.4901
▁재미있을	-13.4902
할만	-13.5015
혼날	-13.5063
▁잊고싶	-13.5115
▁어떡	-13.5116
중하	-13.5226
▁내맘	-13.523
없으	-13.5238
▁인사하	-13.53
나오네	-13.5322
▁낭만	-13.5323
▁둔	-13.5339
▁힘들었나	-13.5353
▁이기적	-13.5379
▁치는	-13.543
▁불가	-13.5603
졌죠	-13.5649
현이	-13.5679
안했을	-13.5772
보러간	-13.5834
졌	-13.5907
은데	-13.5916
키는	-13.6031
▁주체	-13.6036
다던	-13.6059
받아들여야할	-13.6101
▁이사하	-13.6111
▁헤어져야하	-13.6245
는다는건	-13.6289
고는	-13.6361
▁덧	-13.6364
▁하려	-13.6371
주나	-13.6403
▁월	-13.6404
라는건	-13.6426
임이	-13.6545
나기	-13.6587
▁공허하	-13.6629
습관이에요	-13.664
▁놀리	-13.6661
▁충전해야	-13.6679
▁그에	-13.6742
원해요	-13.6823
하셔	-13.6864
▁없거	-13.6868
명하	-13.6897
사가	-13.6902
▁만나야	-13.6984
끝이	-13.7019
하겟	-13.7046
하고싶	-13.7074
되겠어	-13.7083
어드	-13.712
장해	-13.7134
쁜건지	-13.7142
▁일까	-13.7163
든다	-13.733
해봤는데	-13.7431
죽	-14.1027
덮	-14.2564
댔	-14.2565
논	-14.2566
꼴	-14.2567
깼	-14.2568
깬	-14.2569
겜	-14.257
홧	-14.2571
텼	-14.2572
턱	-14.2573
쿵	-14.2574
짼	-14.2575
옛	-14.2576
엿	-14.2577
엊	-14.2578
얇	-14.2579
앱	-14.258
씸	-14.2581
섰	-14.2582
묘	-14.2583
륜	-14.2584
랙	-14.2585
뜬	-14.2586
떴	-14.2587
됬	-14.2588
눌	-14.2589
꽝	-14.259
괘	-14.2591
홈	-14.2592
헐	-14.2593
텅	-14.2594
텁	-14.2595
텀	-14.2596
킥	-14.2597
촬	-14.2598
총	-14.2599
옮	-14.26
섣	-14.2601
밉	-14.2602
멘	-14.2603
꽉	-14.2604
깰	-14.2605
갱	-14.2606
갠	-14.2607
o	-14.2608
g	-14.2609
훔	-14.261
헌	-14.2611
핫	-14.2612
폼	-14.2613
켰	-14.2614
캬	-14.2615
짰	-14.2616
왠	-14.2617
얽	-14.2618
렐	-14.2619
랖	-14.262
눕	-14.2621
뇌	-14.2622
긁	-14.2623
헹	-14.2624
쿨	-14.2625
컸	-14.2626
측	-14.2627
좌	-14.2628
젯	-14.2629
웹	-14.263
썹	-14.2631
숫	-14.2632
삐	-14.2633
몬	-14.2634
맺	-14.2635
맴	-14.2636
릇	-14.2637
넷	-14.2638
낚	-14.2639
꿰	-14.264
겉	-14.2641
C	-14.2642
팀	-14.2643
툼	-14.2644
징	-14.2645
쏠	-14.2646
쏟	-14.2647
쌍	-14.2648
빚	-14.2649
렛	-14.265
뚫	-14.2651
겪	-14.2652
훈	-14.2653
팠	-14.2654
찜	-14.2655
짱	-14.2656
옳	-14.2657
엮	-14.2658
쌩	-14.2659
싼	-14.266
쁨	-14.2661
뽀	-14.2662
몫	-14.2663
릎	-14.2664
땡	-14.2665
둠	-14.2666
꼰	-14.2667
굳	-14.2668
광	-14.2669
흑	-14.267
휘	-14.2671
탓	-14.2672
씌	-14.2673
롤	-14.2674
렜	-14.2675
끓	-14.2676
객	-14.2677
헥	-14.2678
툴	-14.2679
퀴	-14.268
엉	-14.2681
슈	-14.2682
볍	-14.2683
돋	-14.2684
늙	-14.2685
곱	-14.2686
겹	-14.2687
헬	-14.2688
켠	-14.2689
찔	-14.269
쪼	-14.2691
묻	-14.2692
닮	-14.2693
낙	-14.2694
틋	-14.2695
컴	-14.2696
얻	-14.2697
쉴	-14.2698
뢰	-14.2699
랫	-14.27
늠	-14.2701
걔	-14.2702
A	-14.2703
씁	-14.2704
섬	-14.2705
샤	-14.2706
렬	-14.2707
띄	-14.2708
땀	-14.2709
n	-14.271
젖	-14.2711
잃	-14.2712
벚	-14.2713
렌	-14.2714
규	-14.2715
춥	-14.2716
잤	-14.2717
씹	-14.2718
깎	-14.2719
웬	-14.272
옥	-14.2721
앉	-14.2722
썼	-14.2723
뽑	-14.2724
빡	-14.2725
뤄	-14.2726
렘	-14.2727
뛰	-14.2728
딴	-14.2729
녹	-14.273
낄	-14.2731
검	-14.2732
뉴	-14.2733
녁	-14.2734
넓	-14.2735
7	-14.2736
씻	-14.2737
딸	-14.2738
딪	-14.2739
웨	-14.274
샀	-14.2741
슷	-14.2742
셀	-14.2743
맡	-14.2744
뒷	-14.2745
낮	-14.2746
귈	-14.2747
밝	-14.2748
곁	-14.2749
갚	-14.275
넣	-14.2751
N	-14.2752
푹	-14.2753
컨	-14.2754
꼼	-14.2755
싱	-14.2756
삼	-14.2757
닫	-14.2758
뀌	-14.2759
걷	-14.276
쌓	-14.2761
뀔	-14.2762
꿔	-14.2763
깍	-14.2764
권	-14.2765
희	-14.2766
깔	-14.2767
획	-14.2768
북	-14.2769
됩	-14.277
엽	-14.2771
텨	-14.2772
삭	-14.2773
멈	-14.2774
섭	-14.2775
눠	-14.2776
쇼	-14.2777
밍	-14.2778
숭	-14.2779
멍	-14.278
끄	-14.2781
틱	-14.2782
읽	-14.2783
옆	-14.2784
벗	-14.2785
헛	-14.2786
탁	-14.2787
멀	-14.2788
헷	-14.2789
퇴	-14.279
렵	-14.2791
끊	-14.2792
낫	-14.2793
승	-14.2794
득	-14.2795
랜	-14.2796
잖	-14.2797
뎌	-14.2798
삶	-14.2799
밌	-14.28
높	-14.2801
녕	-14.2802
몇	-14.2803
깐	-14.2804
괴	-14.2805
핸	-14.2806
빌	-14.2807
흔	-14.2808
짧	-14.2809
뭔	-14.281
흐	-14.2811
엇	-14.2812
똑	-14.2813
덤	-14.2814
0	-14.2815
픔	-14.2816
슴	-14.2817
풍	-14.2818
첫	-14.2819
맨	-14.282
뻐	-14.2821
평	-14.2822
닐	-14.2823
뭘	-14.2824
엄	-14.2825
씀	-14.2826
험	-14.2827
챙	-14.2828
풀	-14.2829
겼	-14.283
존	-14.2831
격	-14.2832
떤	-14.2833
슨	-14.2834
최	-14.2835
쁘	-14.2836
막	-14.2837
럼	-14.2838
닌	-14.2839
걱	-14.284
택	-14.2841
쉽	-14.2842
믿	-14.2843
싫	-14.2844
접	-14.2845
떻	-14.2846
몰	-14.2847
봅	-14.2848
랄	-14.2849
럴	-14.285
억	-14.2851
쓰	-14.2852
변	-14.2853
렇	-14.2854
뭐	-14.2855
편	-14.2856
괜	-14.2857
찮	-14.2858
썸	-14.2859
혼	-14.286
받	-14.2861
습	-14.2862
헤	-14.2863
싶	-14.2864
많	-14.2865
않	-14.2866
힘	-14.2867
없	-14.2868
